/**
  ******************************************************************************
  * @file    network_data_params.c
  * @author  AST Embedded Analytics Research Platform
  * @date    Tue Dec 12 23:44:49 2023
  * @brief   AI Tool Automatic Code Generator for Embedded NN computing
  ******************************************************************************
  * Copyright (c) 2023 STMicroelectronics.
  * All rights reserved.
  *
  * This software is licensed under terms that can be found in the LICENSE file
  * in the root directory of this software component.
  * If no LICENSE file comes with this software, it is provided AS-IS.
  ******************************************************************************
  */

#include "network_data_params.h"


/**  Activations Section  ****************************************************/
ai_handle g_network_activations_table[1 + 2] = {
  AI_HANDLE_PTR(AI_MAGIC_MARKER),
  AI_HANDLE_PTR(NULL),
  AI_HANDLE_PTR(AI_MAGIC_MARKER),
};




/**  Weights Section  ********************************************************/
AI_ALIGNED(32)
const ai_u64 s_network_weights_array_u64[24587] = {
  0xbe92218dbe758172U, 0x3e3f36813eb5487cU, 0x3e1b17dfbf16e28aU, 0xbd55ecbbbf2bbf7cU,
  0x3d6eae2abe9c6e62U, 0x3ec31d6dbdeae3a2U, 0xbef3b9e73e2ecdf1U, 0xbdc8dec0bea24d51U,
  0x3eaa70e43e999906U, 0xbdf1cd46be2ff0b8U, 0x3caa06d7bf1728cfU, 0x3ea6896e3e1d55b9U,
  0xbef6a4eebe71befcU, 0x3e71e865be00a8aaU, 0xbf0059953ef5f2fbU, 0x3c3cca943e14f17dU,
  0x3e291a023e2e6babU, 0x3e5ca673be3cd6c1U, 0x3db518353cd3e517U, 0x3e8373b23e0f76c8U,
  0xbe3ecf69bc483a56U, 0xbee5ea2f3e8897deU, 0xbd8560cfbf1ef90eU, 0xbcd0a8733e91fddaU,
  0xbea6902a3e21c7abU, 0xbd3d807a3efff9a2U, 0x3f025ff03e9b9a46U, 0xbc4464c83efbae68U,
  0xbd2be6b73e9ae6dcU, 0xbe9cfc58be6bbb6eU, 0x3e8c9a5e3dbb49cfU, 0xbf2ca9cd3e936259U,
  0xbe1c7eac3c63b5f8U, 0xbde8b838bd3edd3eU, 0xbe928f14bea76d88U, 0xba805a063f3accfeU,
  0x3dee225abe6b16f4U, 0x3eedbb043e1e4094U, 0xbe396a27bc8c7129U, 0x3c85b2723c73e3deU,
  0x3cdeaf57bea44ee6U, 0xbda784e6bea35ac8U, 0x3e439cf4bf09ad4dU, 0xbf0d3cc93e1b02daU,
  0x3f0f15353e04c375U, 0xbe8ccc783efb13ddU, 0xbd166d2bbf1326bdU, 0x3e6b19efbebace0fU,
  0x3e0e90dd3e85ba9fU, 0xbe5f5a45be401b40U, 0x3e2ede56be18aad2U, 0xbea6e1da3d90e755U,
  0xbe8982193dd3da1cU, 0xbe7285053e00ea1bU, 0x3eefc01d3ef35bccU, 0x3c6b5c52bebd664eU,
  0xbf0bb193be61fe79U, 0x3ebafe26bef4d41dU, 0xbe0fbdc7be2dd149U, 0xbe2677683e7c834eU,
  0x3e86d7dd3d554ec1U, 0x3e845780bf1f1d6cU, 0x3ddb32073e6ba997U, 0xbf3ba1ee3e257c37U,
  0x3e2bbb0c3deee4f2U, 0xbe2e4765be8cd658U, 0x3e38b1bc3ecf62daU, 0xbebbefdfbe8dcc85U,
  0xbeb176a43e319f34U, 0xbd41b54ebca05622U, 0x3ed8574f3e2a278aU, 0xbdb366bdbf015e8aU,
  0x3e9edf84bed94332U, 0xbdc4257dbe7c5c7dU, 0x3ddb5a003dc75736U, 0x3edc2c6bbdd82d88U,
  0xbf14f1cc3b1d35fcU, 0xbedc430ebe5cab96U, 0x3da8a901bdf1c027U, 0x3df816a1bed1198dU,
  0x3e82793f3bd3d6d1U, 0xbe54e7f33ce515c3U, 0xbcbaaccabf0cb712U, 0x3e61f962be33f9edU,
  0x3dc7687c3e2b2cb4U, 0x3e782293bea5800eU, 0xbe6749ecbf0349f1U, 0xbeb48bdcbe2b4d3bU,
  0xbeccc1503e878e25U, 0xbe3375c93e64fd40U, 0x3e883f30be93ccd6U, 0xbe535a35be8a13daU,
  0xbee5ce5ebed531f5U, 0x3e4df84c3f09ce02U, 0x3e3a7c893e5b7d19U, 0x3e58783e3e8537d8U,
  0x3daa4ca53defbfdcU, 0x3e5784d63d6f2301U, 0x3e882d3ebe076b7cU, 0x3e9e8e7ebdfb1e0fU,
  0xbe7b426d3ec5e893U, 0xbedcd6e23d9d46beU, 0x3a9203c23e8a8cd6U, 0xbdbe10893ea4b1e6U,
  0xbd94f7fd3c3d1af0U, 0xbe5597edbe6f78dcU, 0xbe010f523d96cfccU, 0xbe2a51443e85a42bU,
  0x3e23b7963e55e53cU, 0xbe8ffb99beee5fedU, 0xbf1382753e589c5fU, 0xbd120904bcb99886U,
  0xbe659a99be4ffaf5U, 0xbeb319b6bcad68fbU, 0x3e56a3263f26a9d4U, 0xbec4ab1fbda9588bU,
  0xbef0b8e9befd7670U, 0xbe9613debf3d38afU, 0x3e7004063f08166fU, 0x3ea645033eb5dc62U,
  0x3ea28400beeaa788U, 0xbf11d064bec80133U, 0xbefd89533d8c2f3fU, 0x3e2023cfbe9f570cU,
  0x3cffd5523d772fdbU, 0xbe98aa52bd2e6cb1U, 0xbf443f1cbe513aa5U, 0x3dad5353bd9f8f52U,
  0xbe726d67be8501f9U, 0xbe7eb1483ebb0201U, 0xbe4a6ea23e87011fU, 0x3e93426ebd77a403U,
  0x3e43b96f3e07b016U, 0xbdca72e4be7f37f0U, 0x3e534d473dafeabeU, 0xbed0e09b3ea127d4U,
  0x3e43accf3e4b5571U, 0xbe6c4bea3eb7b148U, 0x3dbdf2b43e7c75b9U, 0x3d64d4e4be5450e0U,
  0xbe1326d03c2edb74U, 0x3e1aecddbed0c9c0U, 0x3ec14361bc860c8bU, 0xbd935ed6bd249b20U,
  0xbe5431f0be2338d4U, 0x3e7b0d90be8548faU, 0xbe9ff1593e3b04dcU, 0x3e4b87f5bdb358f5U,
  0x3e1a51f63eb2984cU, 0x3ec2ce7bbebcf78cU, 0xbd95d269bd3c9e86U, 0x3dd52baabcbd7a15U,
  0x3ef7a7473e75ff98U, 0x3e6361873e80ca6fU, 0xbe7f9ff23e5dbaffU, 0x3e8fa5b3be56fae1U,
  0xbd89afa63e88cfcfU, 0x3ea2d065bccedff9U, 0xbdb892c6bea7d116U, 0xbd0e9065bd662369U,
  0x3c6e7a28bcb1e712U, 0x3a59a4113be6f68fU, 0x3e68ff5e3a166537U, 0xbe6f25b1be1f80c9U,
  0x3eab5456beb19094U, 0x3de51a67bb6187e1U, 0xbe961e103e09504cU, 0x3f04467c3e8bede7U,
  0x3e8df1f1be9d15e7U, 0x3e9253513d1bcbafU, 0x3daf9f4ebeb00405U, 0xbdfee8273e96cc57U,
  0x3ebb79733ec14ebcU, 0xbe7c63cdbe01b4f3U, 0x3ea069f73ebac65cU, 0xbeb95d653d334b4bU,
  0xbe1779a13ec94644U, 0x3ec4b339beb11a06U, 0x3ec3f45f3ec50ca6U, 0x3e8b76fdbe994260U,
  0x3e0e4a23be879986U, 0x3e251a203e5a93e1U, 0xbe4af3163e98a532U, 0xbe360f093ea3bd99U,
  0xbc891fe0be909985U, 0xbe9fcdd2bd579ce8U, 0x3d8e5412be6c9d62U, 0x3da12a663d02f617U,
  0xbc88eefd3ddaa6dfU, 0xbb9db2a4bb379e30U, 0x3e5cc7303bb76d0eU, 0xbcec639a3dd1289bU,
  0x3d33e263bd43952eU, 0xbd5a2ea2U, 0x3e9b3aa400000000U, 0x3eabb7433e2971c6U,
  0x3e969de3bdabfd65U, 0x3e6d7e263cb19bd0U, 0x3e5f16373c131e92U, 0xbdb019873efd4b81U,
  0x3ea3049b3e2c7a75U, 0xbe6736213e950a4aU, 0x3f13b7f1be15e4e6U, 0x3f01c9443d7a596bU,
  0xbd5ba4f4be082c19U, 0xbeb69a28be9afdd5U, 0x3f13e322bd88c1b4U, 0xbe641f8a3ed83895U,
  0x3def8d583c967fd6U, 0x3d7ed2e0be6c8365U, 0x3f0def75be1171d7U, 0x3f14f8593da88320U,
  0x3e396f5e3e20acb8U, 0xbebbf5d53df9407cU, 0x3eb7c455be17ee08U, 0x3e1b245e3f1db045U,
  0xbe178300beba1b2fU, 0x3e88877abe3ace40U, 0xbe602359be70dcaaU, 0xbe86db3fbd98384eU,
  0x3c1f5b6d3e7513a8U, 0x3d89ffcabece2083U, 0xbe048a26beb11f56U, 0xbb87f1fbbe9874adU,
  0xbe34d50a3d9921eaU, 0x3e8e7caebe183b2cU, 0xbe3faa243e03161aU, 0x3db9fe94be0a2edaU,
  0xbe6edc97bdd41f74U, 0x3e4d84f3be7e1d16U, 0xbd9fee73bdac1bb4U, 0x3e871608be945be8U,
  0x3e9900633d84e851U, 0xbe6bf9e83d05ad99U, 0x3d40aba23e72f89cU, 0xbdf31d92bcb817baU,
  0x3db9a86d3e141d00U, 0x3e29b80ebd3933beU, 0x3b310def3d47ed8cU, 0xbd00648bbd5aa2dbU,
  0xbc730ac73e379563U, 0xbe48da1cbd08788bU, 0xbdacdb10be8f5543U, 0xbece24f2bd996a55U,
  0x3d4e0601be7ffd10U, 0xbe39e4553e9b9b31U, 0xbd87d3773f255e8dU, 0xbd6319a1be52ebeeU,
  0x3e90fbf3bd5ca36fU, 0xbdf3d8843ebd082fU, 0xbe205b003e0ca960U, 0xbc52e73e3f32d3feU,
  0x3e83b50ebe4078e1U, 0x3e9c484e3f147da9U, 0xbec4fb793e574034U, 0x3e227157beec7850U,
  0xbdc90ee4be7dbfdaU, 0x3e8390bc3e1fb2d6U, 0xbf0b4a823de3fcd8U, 0x3de8379a3ef3c56cU,
  0xbd987c633f00d200U, 0x3ec3c91bbea189d6U, 0x3ea14b1dbe936ac7U, 0x3e97c488bd3fbfb4U,
  0x3e8e4aa73e00b597U, 0x3e425404bd42b6d6U, 0xbdba29be3e512c1aU, 0xbed13387bd732a96U,
  0x3e9f642dbda717efU, 0x3e2612df3d9fc729U, 0xbd49973cbe33a3c2U, 0x3e0c0481be8d0a6fU,
  0x3ccc57d4bdf5d451U, 0x3e524eecbe0ba159U, 0xbed57fe13d47a088U, 0xbec5b169be27cb42U,
  0x3eb6a7a83dc7b795U, 0x3d9ac0e93d97a5efU, 0xbd0b347abe7d093aU, 0xbd3fca34bf07ab16U,
  0xbd6fcdbc3f198e98U, 0xbe499c51bd41d37bU, 0xbe39b1bdbd922816U, 0xbe436f85bea07069U,
  0x3e5c3061bd909282U, 0x3e6e3fd6be8189d6U, 0x3e5ecdbabe9ad8bdU, 0x3eac8a21be4fce45U,
  0xbe585cd03d45d104U, 0xbe30446a3ea97d76U, 0x3c54075d3d8a2544U, 0x3e475d40bdb0e464U,
  0xbe5ece4e3d00abaaU, 0xbddaf8b3be7627c4U, 0x3e97385a3d3a45a2U, 0x3d28069c3ed13603U,
  0xbdbd8d48bdf7b2e2U, 0x3e672e70be3205bdU, 0x3ead9ab93e01a830U, 0x3e895fe73d93226bU,
  0xbe0afea93e159437U, 0xbc0d2b43be94ebf1U, 0x3e6ad956bec88bbeU, 0xbe12f01f3e8a5ea6U,
  0xbde787dfbeba9d5bU, 0x3dd6ba6cbdc0e12aU, 0xbe8c41dfbe492fc2U, 0x3dd51b25bc115be3U,
  0x3e38c78d3d2295a1U, 0x3de93bd83d04910aU, 0x3de3c2123d5ef5ceU, 0x3d40bf28be1dcde2U,
  0x3e7dd4a2be45f6dfU, 0xbc34c420be801a6dU, 0x3e18989b3e011992U, 0xbf44f533be1a1c96U,
  0x3ea482c5be8bfa22U, 0x3d9cd3863eb5e504U, 0xbf034cec3f0f1effU, 0xbe2e9a8abe045491U,
  0x3e3faa1f3c8bbf2dU, 0x3e7faf003d50ae3eU, 0xbe9aabfabe88201fU, 0xbe9b19473ef9d482U,
  0xbe8fdd263e841a8cU, 0x3e389caf3d8228e1U, 0xbf016b7d3e903fe0U, 0xbd72ea9cbef6ac32U,
  0x3e40ba18bcad309bU, 0x3dd9e290be89a820U, 0x3e3371b7be8033d4U, 0x3eda1236beaab981U,
  0x3ea3204a3ed8ab1aU, 0xbd58b4edbee65608U, 0x3f0786bcbe7b2487U, 0xbe0ecc533df84c1dU,
  0x3e5b5590be248351U, 0x3db469a4be872148U, 0x3eced365be339e8eU, 0xbd37ba3a3c99f4d5U,
  0x3eb179b1bece8ac9U, 0x3e823df83f1b422cU, 0x3bd14a053f15f5daU, 0xbcdf89403eb1341aU,
  0x3e1fc17a39bdd3e8U, 0xbe8e9b213ece9e7dU, 0xbdd97a283e61a3bcU, 0x3d5926cc3ee9cf4eU,
  0x3e1ef29dbe3139b3U, 0x3e63e3c13f1dfd3cU, 0xbdd776a43f012af4U, 0x3e8c91b1bf004dc1U,
  0xbd8c21523ec6bb9dU, 0xbd9e71fe3d640b5aU, 0x3de56a59bc63fce0U, 0xbe3b36243e848e4aU,
  0x3d839a913e7f339aU, 0xbe53c9313de07f9aU, 0xbdb269f2bcca3157U, 0x3eb78df73db1bedfU,
  0xbe49da203e76d55eU, 0xbe81cba53eb47992U, 0x3e0a7defbe3955feU, 0x3e26e140bd5d8049U,
  0x3d08bddc3d847faeU, 0xbe64997f3df6a476U, 0x3e54e72abdd7809eU, 0x3e289578be6b7186U,
  0xbde6df99be26093bU, 0x3d5e04a8be2b976cU, 0x3e3741c6be578979U, 0xbe420a8dbdec79a7U,
  0xbe4ad633bd5d83bfU, 0x3e778d863dc346a6U, 0xbd56112e3d523b6dU, 0xbe76de88bdadf562U,
  0xbe7b85c8bdbe6f4aU, 0x3de72820be5c04ceU, 0x3e0945673cb0aff0U, 0xbe30a3efbe3b19fdU,
  0x3e51794cbdfea927U, 0xbe970f22be3cc4e1U, 0xbce3d39dbd3de395U, 0x3e2b4a60bdce546bU,
  0xbd9353133dea5ec8U, 0x3cfb77703df9b88bU, 0x3db56aaebd7d932cU, 0x3dca1b8f3c006ce1U,
  0x3e1504083bb0378eU, 0xbd6e8783bcc135b5U, 0x3de08d07bc653e55U, 0xbe869e3a3eaf80b8U,
  0x3e6c9f2bbe301c9cU, 0xbedc1615bd5d990eU, 0xbf16fa973e71f93fU, 0x3e85490d3e874ea5U,
  0x3d99e1643ec60501U, 0x3e17ec03bee1e356U, 0x3c5471e03c49aabbU, 0x3def3621bdc98c0eU,
  0xbe0d6ec03eded7a5U, 0x3eb861ab3db5072bU, 0x3eaaaf80bda0800cU, 0xbe1ce1e1bee6753dU,
  0x3ef5123ebeedb9beU, 0xbedd36f9becd493dU, 0x3e8b5d03bd652f11U, 0xbc9f53dfbe863c38U,
  0x3f1943d3beed3a21U, 0x3e3a1a0b3dc99dceU, 0x3ec4a6763e1a740cU, 0x3e1a18a83c302402U,
  0xbb07ba3dbed58791U, 0xbec4ba23be89944bU, 0xbdc7595a3cf3802dU, 0x3ed85fd83d6a69d5U,
  0xbdd214e8bec2a36bU, 0x3e95ac543de94897U, 0xbd69db31be81aaedU, 0x3e8e90d4be218144U,
  0xbee89f32ba47906dU, 0xbdeba9bf3f3af52eU, 0x3de8cf3fbe90f14eU, 0xbec7937dbec89239U,
  0xbd8a4a74beb6ab36U, 0xbced9e19be993bd1U, 0x3e761081bd886097U, 0xbe236558be8ffce0U,
  0xbde23263becc7aa3U, 0x3e8fc6643daad9a2U, 0xbbd66addbe4730a1U, 0xbeaaa954bed85097U,
  0x3e5933aebeec2083U, 0xbd1b9dfc3f09e8f3U, 0xbe3f6ebebe90130bU, 0x3e7f7e13beb9fdbaU,
  0xbeafe2de3def630eU, 0x3ee900633e57cd3eU, 0x3ea56a01be94e2cbU, 0x3c9415243d2d8a3fU,
  0xbea0137f3e9d06e1U, 0x3eab57be3e846a38U, 0xbe596795be222af1U, 0xbf024e7cbd7d12ceU,
  0x3e658acbbe3120b2U, 0xbe8f80a5bec8c963U, 0x3e92bbe63eaf7062U, 0x3e872fc03e4266d9U,
  0xbebed21bbedc2a95U, 0xbc112cc73e96a105U, 0xbf04f9b43ebb4cd7U, 0xbd48d0dc3ecc7f8eU,
  0x3e69e12e3d84edbdU, 0xbe4290443e25a58cU, 0xbe61e6b73daee806U, 0xbcde36d73edc48caU,
  0xbe94d4fe3dcf1f72U, 0x3e66b2cebebcb2b3U, 0xbe796418be9cd3d0U, 0x3e855c1fbc0074cbU,
  0xbf1eea8c3ea7cbd8U, 0x3eb09a773f0e64d6U, 0xbf26cd39be886b68U, 0x3e469e923e0045c9U,
  0xbe98659c3ecd694eU, 0xbd248b61be79f98fU, 0xbe3bada03d8b42c4U, 0x3e7843913ed9ebd2U,
  0xbf296c8a3e3c7bd0U, 0x3e266caa3e8b1518U, 0x3db4ddf43eb10bdbU, 0x3bc100d73ee3803bU,
  0xbed153ab3e9a3420U, 0x3e3e0274be0f07bfU, 0x3efcbcd03e25116eU, 0xbe5fdf783df7b944U,
  0xbee6698d3e1a43bbU, 0xbd8578fd3df6827cU, 0x3ec592edbe86d17aU, 0xbe17b4a0bf1593c6U,
  0x3f0b7b71be8a4c93U, 0xbe338d833e7b1f0eU, 0xbc2efea43e02d905U, 0x3e1b8285bef5a250U,
  0x3ba0644cbefbc43eU, 0x3e9ca04cbdb7d7b2U, 0xbd6530b2be0a5e18U, 0xbb7ad07b3e024971U,
  0xbc19b8063ca2afceU, 0xbde2501dbd0c8764U, 0xbcd30148bd0b30bcU, 0x3da4d6eebd331aedU,
  0x3dec91ee3c3765e5U, 0xbd573607bd9ba3c5U, 0x3d7a07063d9f476aU, 0x3dc58836bdd1e1c3U,
  0x3daf84b2bd2c1eb9U, 0x3d6c6ccb3dd5ddb4U, 0x3d81c780bc35716eU, 0x3d58f59dbd8c833cU,
  0x3dbb71c8bcfa6834U, 0x3d6dd3c8bd064151U, 0xbd778bba3dc61b33U, 0x3ded8b293d33930bU,
  0x3cfa441b3d4a5287U, 0x3d5e1bffba9302cdU, 0xbd4608a43d2ec6b2U, 0x3deb20513dff2459U,
  0x3d6825983d892074U, 0xbc2893b7bd685bfdU, 0x3d0beca13e160578U, 0x3d76cd29bd447a9bU,
  0x3d68de2e3dfca3f9U, 0xbcb46db9bc0bb904U, 0xbd1893403dbef593U, 0x3e15a6df3d73ad8aU,
  0x3e1b16fd3e0a31caU, 0x3d7fd48dbd2d4b21U, 0x3dc697be3df9f690U, 0x3da34a3fbdbebea4U,
  0x3dbafb3a3dc0cf22U, 0xbafa1e663d262710U, 0xbd36c0873d2481efU, 0x3e3963f1bdb65122U,
  0x3d050fac3d8d17eaU, 0x3cf7a6a93da1e07fU, 0xbcff32d9bb375b0fU, 0x3dc14bd8bc832234U,
  0xbd3221373df781b6U, 0x3d64b2ab3bbff7acU, 0x3da526663c34b11fU, 0xbc909f85bc86dbe7U,
  0x3d13d4643c97e542U, 0x3ab823713dc49cf2U, 0x3db44594bbed2ef3U, 0x3d0418943786d889U,
  0x3df9d8983dc93fd8U, 0xbc3d4e713dacd0cbU, 0x3d62d3a53d0ca2e6U, 0xbd3be6c1bd71cdf0U,
  0xbbb966f13d1c3a46U, 0xbd3cd2ca3d5ff20bU, 0x3dcf02a73dec3425U, 0x3d577ccbbe3d002cU,
  0xbce5da163ca644c2U, 0x3d12afc53e064c55U, 0xbc5033a6bd4876e5U, 0x3da07efbbe3bdf79U,
  0xbc0011f5bdbf864dU, 0x3e215bc53d9655bfU, 0x3dad47c9bd5b99c3U, 0x3d9f7a2ebde00a45U,
  0x3e1d3de23e006d10U, 0x3de99a563d309b24U, 0x3d231a5abcdfff3cU, 0x3e136b543e36606cU,
  0x3e2ab1cb3d558e5dU, 0x3d42d50e3dd83cfeU, 0xbcc543ad3d67ff8eU, 0x3bebb268bd9a5384U,
  0x3d9d4ab63b82acd8U, 0x3d999aa2bcbb72b6U, 0x3c67e816bc987fcaU, 0x3ccabe58bdc489d7U,
  0xbdf90b16bb854640U, 0x3a5ebec4bd18a30bU, 0xbda4ba933d099c70U, 0x3d9ecda6bdf29bcaU,
  0x3cf2411a3d412fa6U, 0x3d17e447bd2e2389U, 0x3d6e78453df6e6d3U, 0xbdaf49c83cb74776U,
  0x3e10d4493e4ec55bU, 0x3b957c4dbd520370U, 0x3ddd63c53e435561U, 0x3cdb11c4bd6c80f1U,
  0xbdb9835a3cfdb39cU, 0xbc651909bd23765bU, 0xbd330badbd4b1af0U, 0x3d552eb1bdddae6eU,
  0xbd503dc1bd11bddcU, 0x3d3863a43deb84a4U, 0x3dacb97c3d04b671U, 0x3de1417fbe1733c1U,
  0x3e02ed043daa06fcU, 0x3b9b50eebae9b970U, 0x3c9b8fa9bcb71b7aU, 0x3dcc0f373ce72adfU,
  0x3d18eace3da508c3U, 0x3d5ad954bc36ddd3U, 0xba52ed033de41f01U, 0x3d4f0f5bbc7f1152U,
  0x3dd44e3b3dbb39f5U, 0xbd35504a3dd524b9U, 0xbc1c62583d5d7d41U, 0x3e098885bdc7c875U,
  0x3cbe522f3d17a593U, 0x3daaf7133cde5135U, 0xbd97795a3d805dc9U, 0x3e1048a7bd0ae5c0U,
  0x3cbc366c3db5fdf6U, 0x3c8525993db256d4U, 0xbac182f13d534193U, 0xbcecc3abbe11d20dU,
  0x3e0fdb4e3dd9c472U, 0x3d86f5bbbcc573d4U, 0x3d7027583d404012U, 0x3d367ac0bdbd069eU,
  0x3cdf127b3d290141U, 0xbd17c7b63de47bdfU, 0x3d999be23d8fdfe8U, 0x3d609f57bdeb501dU,
  0xbc6af9383d8b4c06U, 0x3dec588b3c40b8cfU, 0xbe020ee6bce788d3U, 0x3e5e1b0cbe4265a3U,
  0x3c2b85e33e064329U, 0xbd3eff953d03ddceU, 0x3dd4d994bd369fc7U, 0xbd63282f3b9ddd89U,
  0x3e1689aa3dab5bd5U, 0xbd6bd2a23da19028U, 0x3dde08b13d256417U, 0xbc906a56be241c5dU,
  0x3c14066f3d8c260cU, 0x3dae93eabd3863baU, 0x3d66391e3c05dc21U, 0x3d5fde54bc600adbU,
  0xbd8af0e93c40a770U, 0x3dc6dabbbd5a4383U, 0xbd7309ecbc3c3b5eU, 0x3d4025a7bdea4f76U,
  0x3cb66f463d5083cdU, 0xbd752454bc31786eU, 0x3d409a7b3d593653U, 0xbd7a2d6e3ce7dc18U,
  0xbda0fc4d3dfff663U, 0x3da80b6c3cc828eeU, 0x3dbef27bbc5e7be8U, 0x3d66c6b2bd933bdbU,
  0xbd32efbfbb96729aU, 0xbc2d46433d360320U, 0x3d1210673cfe0c66U, 0x3c344edfbd74513dU,
  0x3e0d06613c0d4717U, 0x3db4e949bda7ee94U, 0x3d35ab9b3df43742U, 0xbd1b99863b9971a6U,
  0x3d3b1f573da94072U, 0x3cf4b4003d34d6e3U, 0xbda973043e4f0d82U, 0x3db6c66abd68a04cU,
  0x3d6e4a533e448a76U, 0x3d93fc373d87c84fU, 0xbd62af22bc0fe013U, 0x3dfe305e3dc8c946U,
  0x3cb108553d34a89dU, 0x3dc4562a3dab239cU, 0xbcaa3206bc05da28U, 0x3daee5f1bb95cbb4U,
  0x3e06f385bd1bc90eU, 0x3d2b48b13cdbdf81U, 0x3dc1c8fc3bd1a7c7U, 0x3e571b453d8768b8U,
  0xbd34e6623db70aadU, 0x3d2714d9ba03d24aU, 0x3c709bdd3e1f2348U, 0x3de9071d3dea32cdU,
  0x3c99ac8b3dd279faU, 0x3dd0887c3d91e0abU, 0x3db77f1d3d8ce9a9U, 0x3e18cc023e0849e6U,
  0xbc2b9fdd3d1c343fU, 0x3c8c4872bd073e63U, 0x3d96ae383df42246U, 0x3ddc7ec23d8682d5U,
  0x3d28665a3d6967daU, 0xbd487cf2bb501d63U, 0xbcc78d073d6adac5U, 0x3c96d5b03df52375U,
  0x3e3ff8893df8e4eaU, 0x3d5c8a34bbe22fb8U, 0x3c87f3e6bd3b52e2U, 0x3dae02293d28bd57U,
  0x3da0ce6939b51afdU, 0xbd4688dfbc8bfdd7U, 0xbd7aec053d42dca1U, 0x3c68275f3c3e9382U,
  0x3d22b2623d8942faU, 0x3dce37ad3d0077f6U, 0x3d23e9fe3d6dd2b4U, 0x3dfe03dc3ccee071U,
  0x3e2140183e3795e8U, 0xbd895affbd12ac8aU, 0x3cb81d7e3d89f19aU, 0x3cd604c83bb0565bU,
  0xbd8b37443dc9c0acU, 0xbd9f4722bc8f207cU, 0x3c92b82abcafd29dU, 0x3dcd48183d5604a0U,
  0x39a8cea2bd263eb7U, 0x3ccaf09e3cc1275cU, 0x3d9999e13ccfdc79U, 0x3dd07451be1e7987U,
  0xbdb633e13d78a4aeU, 0x3acb01643dead42bU, 0xbd940ba7bd92b599U, 0xbb7729c5bdd8f68bU,
  0xbbc5399bbd4421f3U, 0xbd0e2218bc6abc16U, 0x3cac4b50bc64478aU, 0xbd5a4054be39ac70U,
  0xbbb35bca3d8ba36dU, 0x3dc825883d88e59eU, 0xbbe36bbcbd5b10b5U, 0x3dc76960bdd80e74U,
  0x3e1960a33d93556dU, 0x3d6f24663d57d77eU, 0xbd3055a2bda6378aU, 0xb9aa2482bde15d60U,
  0xbd2485583cd39b6bU, 0xbbf2b29e3c2296edU, 0xbdc556b93d49a4d7U, 0x3d8a2f26bd45e550U,
  0x3e259a813c2a80a3U, 0xbd41831c3d607da5U, 0x3d99bfe13c8196d8U, 0xbd9db812bd0955d7U,
  0x3dd9ef0b3e659542U, 0xbbc3fa2b3dea16d3U, 0x3d6c0dbb3e16c1c2U, 0x3dca2915bda9ce3bU,
  0xbc3e220f3e290ffdU, 0x3cbea243bb4e9317U, 0xbc61fd83bd869035U, 0x3e4c9a413b592d83U,
  0x3dd536463d73fc6dU, 0x3d9a208d3d7b9f9eU, 0x3c3432f53d96a4a6U, 0x3ddd8b9fbbbb99e4U,
  0xbd04b57d3dcf2426U, 0xbdc21418bcecb7d9U, 0x3d70aa313cbd1ef8U, 0x3d87830cbdd3f8fdU,
  0x3b12488a3def404fU, 0xbcb445b53d06b66bU, 0x3dd2e00b3cc94015U, 0x3da1a3513c2d2092U,
  0xbe043aec3c5efcbdU, 0x3d6f61ae3de786a6U, 0xbd7bc3083dafb221U, 0x3e544c3fbc99c14bU,
  0x3a7f263a3d04a31eU, 0xbd06c82bbd21a6cdU, 0xbd80e5683d300c25U, 0x3cfea478be3df4a8U,
  0x3da77da63d6d97b5U, 0xbb695bbd3b323848U, 0xbca4f3bd3daddfa7U, 0x3dd40c003dc04870U,
  0xbb4b30a53da363f1U, 0x3d1179c7bd50defaU, 0x3dd470073db487a0U, 0x3d203d01bdff181aU,
  0x3e4b10aa3e37a298U, 0xbd578a4f3d7209f9U, 0xbd5a9f223e07108dU, 0x3df0ce583daaf7c9U,
  0xbdbe27013de96b61U, 0x3d0fbb993d609bd9U, 0xbdc74eb13da3fec2U, 0x3cf798303b45e409U,
  0x3dc0e6d93c7c2e8dU, 0xbd2695a5bd8e0980U, 0x3b45dc563d86991cU, 0x3da63bc5be0b51daU,
  0x3e0a8a803e0c6392U, 0x3d4b3d55bd197bd6U, 0x3de0ba843ccf77d6U, 0xbcb68550bcb48c99U,
  0x3d3244933d92bcd9U, 0xbdc176dfbb80b3dcU, 0xbca632803d1eb9e9U, 0x3e3773ad3dba9a60U,
  0x3e313a553ce984c8U, 0xbd8c11dbbcf60027U, 0xbd5082963da5b22cU, 0x3dd01b9b3d705481U,
  0x3d7ea7b73d439d95U, 0xbcdfeea3bd04f5f5U, 0xbd1146603da34e38U, 0xbd42ff06bd8be192U,
  0xbd4093c03ddbb3a6U, 0xbdd18119bd185f1dU, 0x3d1231c03cb3696bU, 0xbd213ac4bbe066d9U,
  0xbd8dce6b3caf29abU, 0xbc90f38e3ca2862dU, 0x3d9acd9abd14328dU, 0x3d529a153cfbd9bcU,
  0xbd1d2b92bd964d74U, 0xbbbfc6b43ce56a80U, 0xbd8a78f23d305146U, 0x3d13b641bcdae9afU,
  0xbd9cf1723ba1446eU, 0xbd0beb2abc3150acU, 0xbd8dd5e6bd89168cU, 0xbd84ab683d8085c2U,
  0x3dcff58b3dcf7907U, 0xbda31df13d1f26e9U, 0xbd4e85ba3b2186b5U, 0xbd69f8073d339089U,
  0x3e0e0d083d91c983U, 0xbd2df75abda4a9a9U, 0x3d232bc83d0f764eU, 0xbc40c90ebe014876U,
  0x3d2083503dd867a2U, 0xbdf6158f3c236e7bU, 0x3cd45c66bd8d253bU, 0x3dd9435ebd306c74U,
  0x3d33c85d3e0b6ba6U, 0x3d9237f0bc456cd2U, 0x3dbdb248bd75a46aU, 0x3ddbbbf3be4219baU,
  0x3db708c43cdb5729U, 0x3d1dea683bfbcb56U, 0x3c7851a9bb959820U, 0x3d2103edbda3894dU,
  0x3ac9de1bbcc14217U, 0x3cd49f5e3dabe531U, 0x3d69a267ba626192U, 0x3dfb7431be19a20cU,
  0xbc9b104a3d959897U, 0x3c7710333c11e6adU, 0xbd6f86f13d33afc6U, 0x3da4c51fbe1371b8U,
  0x3db341ca3c536a14U, 0xbcac066f3d1e8fb3U, 0x3d2820fa3da62214U, 0x3e1199d5bdb623f6U,
  0x3e1e58b43de77c4cU, 0xbc2579793ca4c90aU, 0xbd4f82c13d784c04U, 0x3d23981f3deddda1U,
  0xbb6c067c3dd17c98U, 0x3d0d9c46bcc15938U, 0xbcb018fa3daae205U, 0x3db2337d3c680fc5U,
  0x3d4dd2263e788f3cU, 0xbc9a27eb3c1294ecU, 0xbd24f41f3e07434dU, 0x3a9683193d4cad84U,
  0x3d8573123df09973U, 0xbcb0cfd03d58d738U, 0x3bf9eed8bc9a77d9U, 0x3ddc5ce7bd9abb74U,
  0xbc1669413e03488aU, 0x3d458255bc4a1e2dU, 0x3d85508cbdbed7a9U, 0x3e3d5f7abe0aad4eU,
  0x3d62e7bb3e653e91U, 0x3cac4add3bdcc6a4U, 0xbd1981253d1cf44aU, 0x3d082631be3cdf7fU,
  0x3cbf53783d29e241U, 0xbc129bfb3c8350b6U, 0xbd131d3dbd84d5ecU, 0x3bb4ee9abe175b21U,
  0x3e1726883cdb8dcfU, 0xbd2eae81bd2bd600U, 0x3d879fe9bd741f6dU, 0xbd8edbf23c6aaa06U,
  0x3d80b1a13d947c0aU, 0x3d3057e23dd410b1U, 0xbd3471e8bd69527fU, 0x3dfd3644bc7375f3U,
  0x3d8d5bdf3cf6d83aU, 0x3ca4cc323d224f54U, 0x3cd18f8d3d92592fU, 0x3cbbaad3bd64b5e0U,
  0x3cdeb6893de0d722U, 0x3d3b0a5d3d84791fU, 0x3d5d09163dd5192bU, 0x3e04b1143d15b358U,
  0x3cad965e3d2decd8U, 0xbce55058bc9e654aU, 0x3cf1d9053db93d8dU, 0x3d9f00c1bc148d08U,
  0xbc26e384bcff41e5U, 0xbd1b3a6fbc22d3cbU, 0xbd2478693dbd2c3cU, 0x3e02aaf0bd156d5eU,
  0x3d7769b93e31f388U, 0xbd1f8c22bcb5559aU, 0x3d977c593ce6da22U, 0x3dc3ba2fbdb2292cU,
  0x3c1e41da3d7d02daU, 0x3d2f30e33d9cd53fU, 0x3cde64053e04d74bU, 0x3e3e87d4bd8ab0c6U,
  0x3dee81c03dc5ae0dU, 0xbbd4d751bb474a82U, 0x3d90cb2b3a611666U, 0x3d7fc30bbd3f633cU,
  0x3e0152773d87b660U, 0xbda07b183d048bf8U, 0x3d48263e3de093faU, 0x3d7f937c3b7a6900U,
  0xbd43675d3cf3b526U, 0x3d849d293cec5decU, 0xbdafd534bd5d33e9U, 0xbbb43d63bd0ff06dU,
  0x3b1273c63d3c018aU, 0xbd356cf43c70cc56U, 0xba41b44b3d375431U, 0x3ca87d8e3cf4b487U,
  0x3d8af0d73db5617eU, 0xbce69abd3da958ceU, 0x3d98d609bd10e896U, 0x3d4b4b48be2ac77cU,
  0x3aacdcedbcee4504U, 0x3d393e093e36b37dU, 0x3dae930fbdb79b44U, 0x3d3de0e5bdaa9c38U,
  0xbd86956c3c084cb9U, 0x3d91ee113d8507a1U, 0x3d9330403d00d70bU, 0x3d828001bd24d98dU,
  0x3d91f4dcbcf087e6U, 0x3dcdf8013b1b49feU, 0x3c4489a73de33275U, 0x3c5b6d653de20cebU,
  0x3d6db9b63e04a6b6U, 0xbcf187333d86d3e4U, 0xbcfb91183afc216dU, 0x3bbe1509bd020e8fU,
  0x3db1f127bd1eb893U, 0xbd2965763d1ea577U, 0x3dcb3d31bb7b8867U, 0xbcb5aa06bdcf3eb5U,
  0xbd6ba42c3d48d35dU, 0x3d663bdcbc4ccb62U, 0xbc753a47bd7b72b7U, 0xbc0fbb14bc2e9b3bU,
  0x3d3904e53ce7daffU, 0x3d251beb3d1fcd9bU, 0x3da04371bc58b81dU, 0xb9d5d7bb3d3e2f51U,
  0x3de2ceac3d6cc856U, 0xbd39c100bd164f8dU, 0x3d71187e3e1a0e87U, 0xbc856a9fbc17f07eU,
  0xbcc1d2e73dc3df85U, 0xbd8861be3c8f6a46U, 0x3dd234a33dbf47d0U, 0x3e05327fbd743bffU,
  0x3d2c1310bd416cd1U, 0x3d228fd93d73a3beU, 0xbc58e7363ca747a1U, 0x3db9e6fb3d275738U,
  0x3dfb49a0bd860e87U, 0x3dbb6f6e3d48307dU, 0x3cbcf7c23d7e7105U, 0xbbd131673dbaa126U,
  0x3d55e5bdbbd629bfU, 0x3cb394d83d9efae4U, 0xbc8d89f63d917aacU, 0x3c83c1e7bdad6b4cU,
  0x3d3579493db3bc46U, 0x3ca333cc3e3f0c36U, 0xbdab45573da5b2e2U, 0x3d2863d5bdc4eb5aU,
  0x3c98f091bd813544U, 0x3c6478d93d01f1adU, 0x3c1bfad53da9c856U, 0x3da0a60e3d86ad1dU,
  0x3db04b4b3bf3255dU, 0x3c2819733dadb349U, 0x3dbeff82bcdd02fcU, 0x3d8f057ebd8122bdU,
  0x3d9df8ff3d82e9c2U, 0xbd9682933e0bf329U, 0xbc93511e3e09cc4cU, 0x3db539d8be4fd280U,
  0xbd8ea4c83df92c9dU, 0xbc8fce01bd511119U, 0x3c9eff163d53a87dU, 0x3e021848bdf0ffe7U,
  0xbd4dbca2bb96936fU, 0x3c9e6d37bda8f4bfU, 0xbdaaa6f5bd2a3c3bU, 0x3dc13506bcb22170U,
  0xbc8f2529bccec377U, 0xbd78f057bda5e939U, 0x3dc45f5b3da263d7U, 0x3d7d94963d8ac9acU,
  0x3d0bd4083cef68b2U, 0xbda9a7ef3e04b716U, 0x3c21c841bd060fdeU, 0x3dbacfaa3cac3cf5U,
  0xbcf4c8083d4b50cdU, 0xbc899d803d2461baU, 0xbd4f89f13cc3b920U, 0x3dffc7f9bce0a28dU,
  0xbca50d763c3f92d8U, 0xbb86c0ed3c0b2a9bU, 0x3c3aedf23dd4b26eU, 0x3c7f528d3d1cf57eU,
  0x3e0160233d3fa456U, 0xbcb983d53d83fee9U, 0x3ce63ccc3e0da23fU, 0x3dc282363dba0572U,
  0xbd7e41883d132ab1U, 0x3dd2399b3d21019cU, 0x3d8750a2bc553ac8U, 0x3dbe1a0c3d2163c3U,
  0xbca3a0513da6805aU, 0x3dca1691bcb2eb37U, 0xbd158bdd3c136ab5U, 0x3d0d1c21bd4b2a67U,
  0x3e4f11533c945e14U, 0x3c1df788bc75d402U, 0x3dd594423dd37ff1U, 0xbd3e4510bd95a4c0U,
  0x3d344d033ccf1a67U, 0x3db3f91abb596d18U, 0x3d76e3b43de4f2e0U, 0x3dcb1e373c0fdf31U,
  0x3d0f0b9c3e082f88U, 0xbd5b31673d783f16U, 0xbd5ea8ba3d8d1a63U, 0x3cfd4e513cbded3fU,
  0x3d8e89793d88397fU, 0xbca4903e3d1b376eU, 0xbdb08359bc05a39eU, 0x3d1302ebbd9f7526U,
  0x3c49173f3cf06259U, 0xbd1c4959bd066afaU, 0x3d7ee7693de060deU, 0x3d85336d3c7cf57eU,
  0x3dafa0333e41bd41U, 0xbd925861bcf48e49U, 0xbc323de53c9f9985U, 0xbc93dd833dfbeae6U,
  0x3dee94ac3e1cb810U, 0xbb8003e53da64984U, 0x3cf485e83e1e9e42U, 0x3c6108ed3d0feb2fU,
  0x3c12ef673e13376dU, 0x3cc5379bbca1a4a2U, 0xbd509b5cbc2794abU, 0x3da0090abdd282ceU,
  0xbd99d90c3d93426cU, 0xbd20168b3d2743c3U, 0xbd5234c13be8c51aU, 0x3cf302413e3543e3U,
  0x3dfd133a3bf84cb9U, 0x3cb0c883bca1f97cU, 0xbd42c9043ceb834dU, 0x3a8b91213cb64348U,
  0x3db99c7f3ca5aae1U, 0xbd6846a6bc91f984U, 0x3daf21cfbc846ddaU, 0xbc91b23cbd967387U,
  0x3d5eec843ddee06fU, 0xbd0bf81f3d84b5dbU, 0xbbbb3f513da5e0f2U, 0x3d4112fcbd375c19U,
  0xbcabd90b3de194f3U, 0xbdcc80723d0259faU, 0x3d02ea4d3cce9328U, 0x3d967f9fbce5e2e4U,
  0xbd18a2b93da20243U, 0xbd4a2b2ebd9b3197U, 0x3db335f03d629bdeU, 0x3d66d658bdc38e28U,
  0xbd7a90e23d8a423bU, 0x3bec39ba3c9e8cdeU, 0xbd8be2be3d7f7f19U, 0x3d792aaabd5a31faU,
  0xbd2558053dd0c57aU, 0x3de2ad443dd2c500U, 0xbd62506d3c54a86bU, 0x3dc46d97bd01d03fU,
  0xbdf1cd5a3d851259U, 0xbd02d1aa3d69a63dU, 0x3c9c1cb53d94efc8U, 0x3c03d984bcfcf7f1U,
  0x3c95f4843d8c5ffaU, 0x3d25194b3d254c16U, 0xbbc5c4e63d94829dU, 0xbd6fb027bd03d908U,
  0xbc4ec7bf3d8a89b5U, 0xbc22cc473c47f648U, 0xbd0270d3bdb3ae02U, 0x3d0cbd50bdf300deU,
  0xbdd172733ce76c96U, 0x3b604f713d8c358bU, 0x3c1a2bb9bcffdbf3U, 0x3c23d5123d90164aU,
  0x3dfdc5733e0da293U, 0x3cf1a59e3dc88746U, 0x3b8f3b17bcc141f6U, 0xbd0e545f3de16324U,
  0x3e17bfd93e1a2e3cU, 0xba6145823ddb49f3U, 0x3d26020dbb6274ffU, 0xbd2496cfbd10cc76U,
  0x3d91348d3d4bacc1U, 0x3d8404a13da71886U, 0x3d3b5f063d9fea33U, 0x3d9f055bbcc9907dU,
  0x3d265a7c3e0aab4cU, 0x3dcb4368bd3986d1U, 0xbd6e52fbbd0d7300U, 0x3dd734bcbd91af3fU,
  0x3d8f05833dadfe7aU, 0xbd623324bdb4b553U, 0x3d812f843d1db3d8U, 0xbdc1ad44bd4187d4U,
  0x3e0d69963d803f95U, 0xbbfa3a363d9b1dc6U, 0x3d7a11c53e1e7c4bU, 0xbcafa0003dd5eed6U,
  0xbdf98bd73d6909b0U, 0xbc467fbc3cf0c618U, 0x3d15227abcf3799bU, 0x3e2aa94bbe08fb14U,
  0xbe040b67bcb9a881U, 0x3d91c669bd5e7fddU, 0xbd918908bd895e67U, 0xbd9c7bc4be04ef51U,
  0x3e03fdb63cd6d086U, 0xbd40df4c3c4215eaU, 0x3ba2f4e23d1519b9U, 0x3d0b676c3d304dffU,
  0x3d6bbdf63dd86637U, 0x3d8e8fb93d086de1U, 0x3de8412dbb5f7429U, 0xbb8c380ebd73c094U,
  0x3d8ce22d3dcd9104U, 0x3dac028cbba885cbU, 0xbc96748e3dc28275U, 0x3d2ff34e3c0fff76U,
  0xbd9c0e0b3d4c6db7U, 0x3e001b2fbd416436U, 0xbdc4f69ebc64ee9bU, 0x3dbf14b2bcfa06d9U,
  0x3dabe5723d23f54cU, 0xbdda54e93d3f9489U, 0xbd4e53aa3cc8146fU, 0xbd6a41b1bcd575c5U,
  0x3bed20303d93f988U, 0xbcbcf354bd754913U, 0x3dc1e12a3cc9db11U, 0x3d2cb3ff3cb3c7e9U,
  0xbb8ed933bc0b1a12U, 0xbd948ea0bb51ef06U, 0xbe08e7a53c96bba4U, 0x3d48dda5bd689473U,
  0x3dc160103ca2f409U, 0xbdb2213bbe123942U, 0x3d97eec73d3fce24U, 0x3d13b9373c8385e4U,
  0x3d863ac63e2517cbU, 0xbde0e4dbbdbeb214U, 0xbc2e23f03ddfb00fU, 0x38c18c30bbb4caf8U,
  0x3cc3f8763da04649U, 0xbd99638b3d446199U, 0x3c869bcd3d927fa1U, 0x3d9aa6abbd2c2151U,
  0xbcb0b5193e196b07U, 0x3dcc7ce83d049e15U, 0x3c236609bc9c1282U, 0x3dd5fbf7bd606850U,
  0xbde107c43cfa0584U, 0x3d8332c93d217d6eU, 0xbdbed2dcbdc22fcaU, 0x3da56783bda4f2a7U,
  0xbd7e9c633ca148aaU, 0xbc1acb72bd957a5bU, 0xbd87ea9e3d0bc98dU, 0xbe0410833b8a5940U,
  0x3cb56f6f3c98afd9U, 0xbd59fdc03d085b53U, 0xbd0d91e43dab69a5U, 0x3e04b60d3d59e71dU,
  0x3d26e9b8bd00515eU, 0x3d78ba39bc43c1c9U, 0x3d3db8213db325a9U, 0x3b5c9206bd0185e0U,
  0x3ddc02783d9f73b3U, 0xbd1ec0283c500bd2U, 0x3d4e60c43dba59c2U, 0x3c4df971bc08c4ecU,
  0x3dbdc1b13cf6ae5dU, 0x3d64a3bf3d246298U, 0x3d946f8a3cade38fU, 0x3c9d59dcbdfeee6dU,
  0x3d75dec53d947f53U, 0x3d46023b3d7138c3U, 0x3dde35cdbd08e1a8U, 0x3c197665be01e9a5U,
  0xbd3e4b36bb0e8e62U, 0xbd37b8583d91c50dU, 0xbd3ae54cbdd04015U, 0xbbc946c3bdde37d3U,
  0xbd33083cbda5895aU, 0xbba31456bcffaf8fU, 0x3dddb2ad3d7a42d2U, 0x3dc74e3bbdf408c6U,
  0x3e0cba1e3e124501U, 0x3d58eea3bd6b7c3fU, 0x3ce618203c93e860U, 0x3ce252e6bda00a33U,
  0x3d980c443ca1df4bU, 0xbcfe3df33d947c3dU, 0xbdc8c8563d0b3b8bU, 0x3e002fb23d25db61U,
  0x3dfa52cf3dca9dafU, 0xbd4044583c298af4U, 0xbd033e1c3d78a9d5U, 0x3d570f663d146c0bU,
  0x3e2c95783e0d87dcU, 0xbde4cd5fbc867043U, 0x3d8fd2143ce74ddcU, 0x3daec1ae3cea83f4U,
  0x3d2365fe3e0e2ba5U, 0xbde6d50f3d56b93cU, 0x3d82f214bd5e1465U, 0x3d416b24be279736U,
  0x3b91cad7bcb45b99U, 0x3dc6c91a3e0c6793U, 0x3d4c2bf3bcb9540fU, 0x3e1ecf4dbe31300cU,
  0xbd90f2503d62abf8U, 0x3abcd996bcc8eaceU, 0xbd1892783c8b77a2U, 0x3def5042be56bdd4U,
  0x3dacf0803d4bf0a8U, 0xbc9a6f8f3d429439U, 0x3cb7eacd3d6e3744U, 0xbdcd5d5abd88c057U,
  0xbdd0cccdbdfc0748U, 0x3e0433e93d965fc8U, 0xbc79c781bda1e6fcU, 0xbca00b63bd3cd656U,
  0xbe166df2bb269925U, 0x3d258c1abc8e8d0cU, 0xbdd0b35c3c9da701U, 0x399df7023de16679U,
  0x3d959f053d59ca4dU, 0x3c85832bbdc63873U, 0xbd39ebcd3c8ef75aU, 0xbddc5e7d3d050a17U,
  0x3d1d311ebe1e0ea8U, 0xbd92eb1fbd463b38U, 0x3da813cfbd03161fU, 0xbd0a4e823daed09aU,
  0xbdef22af3cd00ae4U, 0xbd59742cbc06d272U, 0x3cc66f47bd8fb98cU, 0xbcee75b5bbb815daU,
  0xbd901e72bb7cdc73U, 0xbc99c4fc3d3637d7U, 0xbd378bd3be09de01U, 0x3d88a5c43ba06541U,
  0xbe030ef3bd49efb6U, 0xbceef848bd0ae35bU, 0xbdb157aebdb6dde0U, 0xbd18a9383cd02ed9U,
  0xbdda686fbc2fad45U, 0xbc9f3d463c425665U, 0x3d255f02bbf0528eU, 0xbe502aef3a228884U,
  0xbd8338883b6bda9aU, 0x3bf7830d3d72b4dbU, 0x3dd731493d416d24U, 0xbda119cb3de8f9d4U,
  0xbd0f0fc1bd4105c5U, 0x3cd17eee3d077291U, 0x3db2adddbcdc9eb3U, 0x3c0e3c503d4020ceU,
  0xbdd1b5c1bdc5c453U, 0x3d9f44b33d59fa5eU, 0xbd555c15bcf53a21U, 0x3e02bd22bd93f0d8U,
  0xbc5c4bdebd44e01aU, 0xbd13d50fbcf51f58U, 0xbd9dd85bbcb76aaeU, 0xbcc5cf58bdbc6ccfU,
  0x3cf9250cbe117bafU, 0xbd4ddd103d24e554U, 0x3c5975da3d0c50e3U, 0xbda84fbfbca3ac40U,
  0xbdcd590d3cc4b593U, 0x3d9f97a73d4f0a81U, 0x3dcfb3723c667190U, 0xbdde8297bcfe13b3U,
  0xbe11ec67bdbdd9d8U, 0x3d91f5d13c1920ffU, 0xbd8c2069be0f1e13U, 0x3da32d883b6d9ad2U,
  0xbc3d55bfbe29e1dfU, 0xbceeb280bde39be5U, 0xbdac96ce3c988e76U, 0xbc7b12b5bcea2ea8U,
  0xbca75c56bddded7aU, 0x3bbf85ddbbca4d98U, 0x3b8d3737bdcc78efU, 0xbda4ceca3ddea85cU,
  0x3d9fdd6abd6e51b5U, 0x3c9a9154bc0d46daU, 0x3c2d5a483e221416U, 0xbe2bec473d58de07U,
  0x3df8aa7e3d8c430cU, 0x3d57af813bb1248dU, 0x3d35e1943daefdf1U, 0x3d596ad03dad4abcU,
  0xbe101539bb1e9c18U, 0x3da2e1033c71dc6cU, 0xbcd86aebbe065f34U, 0x3dad9db5be267c94U,
  0xbe1ff13dbd65a82fU, 0x3ddbb7b13d7836d4U, 0xbdc59ccabe28a291U, 0xbd934cc13b8211fbU,
  0xbd0e6634bdacc273U, 0x3d1950acbcb8d551U, 0xbb7fa65bbe0803c2U, 0xbe456e603ccafc9bU,
  0xbc7008e8bd24fa87U, 0x3d7e80da3bcea919U, 0xbcad08e0ba776975U, 0x3d3dfb543c407a56U,
  0xbd450569bdc209b2U, 0xbd5f522bbd546f2eU, 0x3de983a33d1ba461U, 0x3d4236eebd811124U,
  0xbcce9c25bc1e3c3fU, 0xbd8657073da2c4cbU, 0xbd1d57293d0fc215U, 0x3cc2e69dbd285cffU,
  0x3d2a81443cc09c69U, 0x3d1f432d3c7aa454U, 0x3db1dcf1bcdf55c3U, 0xbd5d8f6d3b6d2a4bU,
  0xbd1b491cbdb3757dU, 0x3c897be03d8ae9c2U, 0xbdf576b1bd3d3a82U, 0x3d67e4edbb5e3a5fU,
  0xbd537474bd11da25U, 0xbc9c2ae9bd3da83cU, 0xbd1a99b63df157afU, 0xbc2b9154bd24f6eeU,
  0x3d05b9bb3d284a36U, 0xbda603aebc7db77dU, 0x3d1f17983e02ae6bU, 0x3d2b6c5c3e1f8959U,
  0xbd8df947bb4324d4U, 0xbc6b8c04bdb99151U, 0xbc6574fd3d5f535fU, 0x3d0ba3cc3e5dc1d0U,
  0x3c3fab5cbc424a52U, 0xbd935312bb036d83U, 0x3d93c4fabd44a40fU, 0x3c32a1d8bb870231U,
  0xbcc884efbd882b0dU, 0xbd7a532a3dbf240aU, 0x3d1f7a43bd1a6596U, 0x3d37921e3d7d55b8U,
  0xbdf0468fbcaed3bfU, 0x3d720ecfbdb1647cU, 0x3da3a9f4bd863424U, 0xbdf430d6bbcf43b2U,
  0x3e114d243b114284U, 0xbd330ac1bdb2012cU, 0x3df49fe1bcd28c9bU, 0xbd5c956f3d9b4c8cU,
  0xbda7318cbde4fdc3U, 0xbd349c99bd411ca9U, 0xbc06b178bdab65b7U, 0x3d987c86bd2ae82fU,
  0xbdc789b83d46ed9cU, 0x3dac9bdd3ce60119U, 0x3d57f25fbe340b19U, 0x3d40656fbe03ae03U,
  0x3d8b10dabd800556U, 0x3b3025fbbc9e6d8fU, 0x3b2f7d2cbd859c42U, 0xbd8f77083d0ddb85U,
  0x3d20aa183d0091d0U, 0xbd6ffcabbc67149fU, 0x3d126eeeba459713U, 0xbcb97c77bd57fa6eU,
  0xbdcfeb29bda8ee9fU, 0xbc120237bc74aa26U, 0xbd50671bbde7d5faU, 0xbd2dd0423d8968b5U,
  0xbd4363c1bcf29adbU, 0xbcbb1930bdcfe1d6U, 0x3e05e67abdc77198U, 0xbe43c9a33dc72c36U,
  0xba3dfd31be0697a9U, 0x3c986f993d9f83a6U, 0x3e0415d3bd2f518fU, 0xba7269803b258a04U,
  0xbe715cfdbdbd2ae7U, 0x3cc519773d546ebbU, 0xbd39d9efbe2355e2U, 0x3ddce0b3bd7f1089U,
  0xbe17b434be2266e8U, 0x3c95482ebd75eba5U, 0x3c255df2bdb349b4U, 0xbe0439c2bc69e56eU,
  0x3da03defbd6ef74dU, 0xbda25543bd562530U, 0x3ded79c9bbf8b175U, 0xbe3918af3dcce7c8U,
  0xbd45c9bbbde156acU, 0xbd8063b03cb78c86U, 0xbddfb9b1bd40e0a0U, 0xbc9f2086bd54022fU,
  0xbe294614bdb96818U, 0x3dcf7d4e3df6d96cU, 0xbd97a1e1bde57cc4U, 0xbde9f8e43b8e562aU,
  0xbc496230be19467bU, 0x3d104c41bca8efe9U, 0x3c7d4649bd38e39fU, 0xbe252714bd3efcdbU,
  0xbdbddb3e3ce78ef8U, 0x3d70afbb3d834977U, 0x3df50a873cb6e1f2U, 0xbdccb3b4bd960fedU,
  0xbe127dcdbd54323dU, 0xbd1b447bbc7a8196U, 0x3d5f0860bc416eafU, 0xbd2f9ed0bd798830U,
  0x39b597cfbdc6611fU, 0xbc1ff2febc30aa74U, 0x3c5bf667bdba2253U, 0xbd398383bb90e0c8U,
  0xbd8ec0dabdb6ebc9U, 0x3cf542ef3d75471cU, 0x3da295dabb173d9aU, 0xbda232edbd041f83U,
  0xbcf68899bdee2451U, 0x3d74c30b3dbb850aU, 0x3b41f9f4bdb52a69U, 0xbd1c6b7a3d857867U,
  0xbe19520abd8ee325U, 0x3d8649c83da5252dU, 0x3d3d95b6bd3d7f5cU, 0x3d5e538dbcb25aa3U,
  0x3dda516ebd006d6dU, 0x3dce0cc43d85bb53U, 0xbb93bb073b9727daU, 0xbd510dfdbd22b702U,
  0x3d0605613dc3ebacU, 0x3d1f027b3e1abd2cU, 0x3d9ef17fbb8c5693U, 0x3d3f21bf3dc215acU,
  0xbe0d41c2bca21a8cU, 0x3d975f5d3df901e8U, 0x3d9451c4bc81d47dU, 0x3dcfc53cbd059932U,
  0x3baad4a03d4d353cU, 0x3d8032053da1e6a9U, 0x3d82a5433cf3e555U, 0x3cf5cec93c9d91e1U,
  0x3ac9bb963d74dcbaU, 0x3c0cad54bb9a66deU, 0xbb3575a4bced6ab1U, 0x3d33756a3df32a38U,
  0xbb53f7983d1581ecU, 0x3d1f31c53cd8c78bU, 0x3d03ab4a3e00bef0U, 0xbd699fc7bd362e8fU,
  0x3d99f1c33d24267dU, 0x3cf6a54abbab0bb1U, 0xbd4e3f41bd0fcac3U, 0xbd1cfc9f3c789037U,
  0x3cfd2c6abb75b58dU, 0xbaa4f5dc3da12364U, 0x3c268bd03b13b06eU, 0xbe3ff30a3c84f2a1U,
  0xbde51865bd05845fU, 0x3cb1172e3e027446U, 0x3d85585c3b3f2965U, 0x3cd23732bd99a29bU,
  0xbd95bb2dbcb8dd95U, 0xbbbf2a2f3d95bca4U, 0xbd8ce02dbd18d715U, 0x3d0396963c087cf0U,
  0xbe0baf85bd98d068U, 0x3c681978bbb2042fU, 0xbb259d82be134185U, 0xbe01cca73d705f16U,
  0x3c901972bd8d61acU, 0x3d60e1e23d0093e3U, 0x3e47c3cbbdbdef6cU, 0xbe3d2c8abd1bbee1U,
  0x3dc7bd43bd201ab1U, 0x3ac248c03d58949fU, 0x3de73b4bbd811150U, 0x3da371b63d05b9f0U,
  0xbe3c524abdb09e52U, 0x3dca07a13de8e104U, 0x3d9de1d2bdbf3068U, 0x3d21efb4bdc10cdfU,
  0xbbc26e123c001eb2U, 0x3e0b7d213dcc7fb6U, 0xb98a6c80ba467fa6U, 0xbde585d63e0d4a74U,
  0xbd89d489bd3d4962U, 0xbc688a15bba45a51U, 0xbd249bf7bdbf38b2U, 0xbd4f78bc3cd65743U,
  0xbd9a5115bd9ce4b5U, 0xbc7fa4723e22d21fU, 0x3da12aa1bdaf730eU, 0x3bf14b34bd3f653aU,
  0x3ca439e93bf2e8b8U, 0x3e07377fbd2a4ba6U, 0x3ddf3002ba787deaU, 0xbd5ace9ebd114ba7U,
  0xba98ac94bda832a7U, 0x3d83c0d73d89ecf7U, 0x3e006a863d3b85c9U, 0xbdab4d3e3df68f97U,
  0xbd1ff780bc8812f8U, 0x3e119ab03dce5fa5U, 0x3c8ea1883de613f8U, 0xbd6728ffbb087a48U,
  0x3c23ea48bd6b3f22U, 0x3db8f6c93da0de20U, 0x3dc1e00dbc732e68U, 0x3b96a1c6bd04d6a0U,
  0xbd4a5606bcf50cabU, 0x3dd262693d7305f6U, 0x3d7e7e75bde3294cU, 0x3da273f73dea30e4U,
  0x3d7652c4bcb0503aU, 0x3dc837cfbb9439dcU, 0xbc6245c1bda57671U, 0x3d02b51bbc3b4071U,
  0xbd62a8c7be205468U, 0x3dddc9323cd04b14U, 0x3c277ee23cce8337U, 0xbc054b963dce0b0cU,
  0x3c8fd021bd4800baU, 0xbd29f40b3c4855f4U, 0x3da762f7bd706aaeU, 0xbdad7491bdf43a11U,
  0x3cf113d53c810afaU, 0xbaea21043d4d66f8U, 0x3d8733febd824503U, 0x3d6e7e1cbcb952e7U,
  0xbda73cf7bc431c08U, 0x3cb7e02a3d7ae00eU, 0x3916ac1cbdbcf422U, 0x3d413155bcedc89bU,
  0xbd7a1e1d3ccbaabaU, 0xbb098915bd89f635U, 0x3d3f7b203d383dd4U, 0xbdfa16c13d2f7ca0U,
  0xbd62800abd9eaf3dU, 0x3d3cc9883e002672U, 0x3c48a3c2bd83b07eU, 0xbe42e1ce3d93a677U,
  0xbd4e843e3d3699baU, 0x3dd57a933d1792fcU, 0x3d5f1e59bda4bfceU, 0x3cbd1b63bb0e680fU,
  0xbe444cc3bdd8209fU, 0x3dba2dcc3d67c5f5U, 0xbda0c12ebde213dfU, 0xbbf4bc28bd1d00aeU,
  0x3c4f2cd8bdd93c7aU, 0x3b22f26a3d65d984U, 0xbd478dd63c962e79U, 0xbdde48293d0c3d7aU,
  0x3c9b6fb3bd2bcf6aU, 0xbcb31fd3bde14999U, 0x3d8c1ba33d072d9fU, 0xbe45b26d3d2afd8cU,
  0xbe02179fbd879c02U, 0x3d50137a3ca8cdb6U, 0x3c8c9d523daf7030U, 0xbddd77a63dbd89c2U,
  0xbdc22d5fbd328d9cU, 0x3ce468a23d13e097U, 0x3e065575bdd40ffeU, 0xbe28160ebca7d0daU,
  0xbd5dfc81bd6dd374U, 0xbd22a0113da2ccbeU, 0x3dbfd296bd9d8639U, 0xbd1aa5bfbc0b15b0U,
  0xbe0aeecfbd3f89a8U, 0x3db3385f3e07a578U, 0xbd55fd90bdfc1962U, 0x3dc8207ebb477c44U,
  0xbd85f7a8bdf994e0U, 0x3da81ca13dc0f819U, 0xbd6d3d7abc5114d2U, 0xbe088619bcf01268U,
  0x3ce8f4f2bd78e7adU, 0xb9ee9896bd8cc440U, 0x3d8a3c98bd20121fU, 0xbe829467bcbd6be4U,
  0xbc9e0e21bd3db9fdU, 0x3d434fa23e01471bU, 0x3d5993f4bdd880c1U, 0xbd0659923d3d4589U,
  0xbe2d6b19be2ca6eaU, 0x3d4299c0bc8a7849U, 0x3d00a77f3ca4ecbaU, 0xbca6bfc13d590304U,
  0xbcaeb5963cc05315U, 0xbdb7e802bc3ff1daU, 0xbd107d84bd19d14cU, 0x3d1ea6aebd9497bdU,
  0xbb52db2b3d609d5aU, 0xbcd63c15bd7908d6U, 0x3d00222c3da4e0c2U, 0x3e10c2aebd9b8c7dU,
  0xbd2be90ebcf354d1U, 0xbc717364bd99d7d7U, 0xbda2a75d3dd49853U, 0xbb955d8fbd8a87a8U,
  0x3c0563bebb3b7729U, 0xbc4b42a0bd63ceb4U, 0x3d2e857f3d712874U, 0x3c34ba7abe6a0cc3U,
  0xbc94aa4fbd07e1e4U, 0xba3b13febd01f09aU, 0xbdbb78f43dbd8c9dU, 0xbc84531ebe013158U,
  0x3b4ecf233d88e246U, 0xbd2f9f3ebdc1d5a1U, 0x3d7b45ac3d9189d4U, 0xbd90a1bfbdfb51a7U,
  0xbde58142bcc47331U, 0x3d0c4b73bc5d0445U, 0xbbad5c71bdb1d42aU, 0x3d9f456fbe338d02U,
  0xbdb47278bdb53076U, 0xbd07d442bd719eb1U, 0xbdd015debda49939U, 0xbcd11342be138708U,
  0x3e14ca48bc3f85dfU, 0x3c1a9475bc9fe924U, 0xbdaad2e33d2e52d3U, 0x3d8dd1cf3e28fe0fU,
  0xbdc6f8e43c908cb8U, 0xbdda0c93bbc58751U, 0xbd93211c3c5bce31U, 0xbda39d2c3dc5192eU,
  0x3de93c813d93b21eU, 0x3ce4fdd43d84ce20U, 0x3e051bcb3e0b1046U, 0xbd3e30aa3c2de865U,
  0xbdc3b7b83d017ad7U, 0xbbfe605c3b00b74dU, 0x3d85ecd93c2bfc62U, 0x3de3ec8abde468ffU,
  0xbd692d6e3cd4a22eU, 0x3c200c5c3d2e66f9U, 0x3d047186bc0431abU, 0x3dcf5654be1ca1a9U,
  0x3d6df4ae3d99a441U, 0xbb1181de3d74db36U, 0x3d84d7fe3bd379b5U, 0x3c8778f63e0fcf2fU,
  0x3bd269653dcedd1eU, 0x3ba46f853cae48e2U, 0x3d670b3e3d9a7ff9U, 0xbd7423033d86184bU,
  0x3cdf88043dac8b04U, 0xbc6cec0cbcc83d45U, 0x3d58522d3dd1f8f5U, 0xbc7bfea0bdeb0680U,
  0xbd4a48db3d64f069U, 0x3dace24b3de193c0U, 0xbd6edca9bc48bb25U, 0x3d9d08cabd3a37aaU,
  0xbc447181bc62873eU, 0xbd13c428bd1dcb7eU, 0xbcddaa0dbd8f3899U, 0xbcb4a7c8bd09a8a6U,
  0xbc31ac9e3ce80ed2U, 0xbcdc65543dba1479U, 0x3d3e4a30bd883a28U, 0xbdbec4913dc6ed53U,
  0xbda4ed593c544dbfU, 0x3d008e223d97d9d7U, 0x3d4f121bbcb1db28U, 0xbc6d3404bdba349bU,
  0xbdc98920bd98b4b6U, 0x3d28e7743d1f9037U, 0x3d85123c3d44d291U, 0x3d6caedbbe19b71aU,
  0x3caa4aeabbbfac4eU, 0x3d87829bbd142ce1U, 0xbb9082da3d8f8029U, 0x3dc3c6b03dd3832bU,
  0xbd8704c0bd4f8bd0U, 0x3de631643c1140b7U, 0xbcdf9dcb3d59dc88U, 0xbd6bfc26be6e21c1U,
  0x3cecb1d6bd0dee2cU, 0xbde560713d793c18U, 0xbbb483edbbd00b88U, 0xbcfa0e24bd6893eaU,
  0x3dbda0c63dcbd179U, 0xbcf85f37bd9d5a28U, 0x3db5b6783d3bb7beU, 0xbc72c0183da9106dU,
  0xbc2acf08bd2e7291U, 0x3dbea2153d970a98U, 0xbad3d89cbd341128U, 0x3dbcdaf1bd5f1729U,
  0xbe084ee4bdd2b459U, 0x3d960dbd3d885b8fU, 0xbdc69b3bbbedd1deU, 0x3c0d8d0bbd518b71U,
  0x3df3f23d3dc747eaU, 0x3d6720f3bd166aa6U, 0xbc38ed90bd6855c5U, 0xbdad67083d425833U,
  0xbdb4dca7bc55ea68U, 0x3d91cfb03dc36c24U, 0xbda87ba3bc208a1aU, 0x3c15013b3ce76441U,
  0x3c9315593d54002dU, 0x3bab745fbcf3b794U, 0x3d486871bd8afc4eU, 0x3cbc88a7bd59e029U,
  0xbd60b0173cab7970U, 0xbc9f58153db8fe45U, 0x3d594dd3bd4e7d0aU, 0xbbf1d793bd5fdf7fU,
  0x3cf177693d8cddcdU, 0x3d4bd4793dc3d770U, 0x3d35d46a3ce61b7cU, 0x3c70c66ebd036d5aU,
  0xbdae648abd778355U, 0x3d0bc39b3d6caaf6U, 0x3c9809ff3cafb655U, 0x3dfcfcc9bd79cfd5U,
  0x3dee0baa3889b39cU, 0x3cba0f483cd11af6U, 0x39232443bca48ee0U, 0x3dbbfbf0bb9f317aU,
  0x3c0c64ea3e1c586eU, 0xbd5f578ebcbd43caU, 0x3c19806d3c6fe1b8U, 0xbd8b4d6c3dc81761U,
  0x3b0e622e3e1fa041U, 0x3d22f1a0bbb1e679U, 0x3c870ee93e0d9fabU, 0xbccd70f439fdf415U,
  0xbc415b6b3c9661cfU, 0xbd2ccb43ba054c93U, 0x3da465323d4e8889U, 0xbc34447dbde83bc7U,
  0xbd53902c3d9ab355U, 0x3cb2b5e63d946a53U, 0xbd97e40e3dd67a1cU, 0x3c9fb4393d0b2badU,
  0x3b05fbb53c1e5012U, 0xbd836865bc867790U, 0xbc0ce6683deebb7fU, 0x3cd918ce3e397fb2U,
  0x3d82f101bbb31119U, 0xbb9998c13d48a54cU, 0xba92be423de59c9bU, 0x3d4cb1793dbc4570U,
  0xbdf968003d6581f1U, 0x3e0274373bf80abaU, 0x3d5e52f83d35b4b1U, 0xbda3cf69bdc1c013U,
  0x3cb59e743d8ebc9dU, 0xbc6b9fe8bd5f4e2bU, 0x3e0d6bfa3b8d7da5U, 0xbc30f7cb3da24318U,
  0x3d76d8e33dc9fe4fU, 0x3dcb93a83dcdec2bU, 0x3d9bdf403d853cc1U, 0x3d4fb911be261679U,
  0xbdd7b689bc447842U, 0x3da360643c28a7adU, 0xbd191f33bacc6036U, 0x3ca990b9bd0e3ec9U,
  0x3db1786a3d91daa5U, 0x3decda603d801c9eU, 0xbd37bc84bcbd6217U, 0x3d539818be078093U,
  0x3d1aed1dbc81e8cfU, 0xba65c35b3db4231dU, 0xbced530ebb3eefe7U, 0x3c81d225bd9530c2U,
  0x3befcd7fbc91568aU, 0x3d0b1b74bd0364b9U, 0xbdb52125bd189970U, 0xbdbffc8abd955d67U,
  0x3d88b94a3c4d3b5eU, 0x3d9c9585bd977d4eU, 0x3d0789bcbd3a2bcdU, 0xbd773c0bbd9ba9baU,
  0xbe064934be03910dU, 0x3c080832bd654f1aU, 0xbc0d60adbdb2598bU, 0xbdae83b7be0045fcU,
  0xbdb236553d988c1eU, 0x3d310c43bc9f24abU, 0x3cb6ba2cbd06809cU, 0xbd7fd540bdee69b3U,
  0xbc8e21943cd2f19cU, 0x3c2c47483d1bfdecU, 0xbcc2892cbcb4d2deU, 0xbccefd4dbe453df5U,
  0xbd81cca7bdb1fe50U, 0x3db91a0dbcc940bdU, 0x3d5226b3bd9ffb7bU, 0x3d774ae83d1b42d9U,
  0xbcc365bb3d2b0dfcU, 0x3dd00dae3ceed425U, 0xbddf4c2abbf383ffU, 0xbc7a51463d3f5fa2U,
  0x3d9295b9bbe0dce0U, 0x3d83f4ca3c60feb4U, 0x3b014be4bd213532U, 0x3de1e500bc974f25U,
  0xbdc6c8f5bc12dea2U, 0xbb6a361a3d6f4501U, 0xbd8f27b1bcd9b110U, 0x3d4fc746bca1c0fdU,
  0x3da1864d3c8127e9U, 0x3d83fa2bbc80ddc4U, 0xbd26b646bcd1e1abU, 0xbd3dfeebbdbc293aU,
  0xbcffde803d053355U, 0xbd4538133d82d8a2U, 0x3b542093bb6e8e91U, 0xbcf704723dd5b373U,
  0xbca4ffaebced4060U, 0x3d2a74983d20e0d5U, 0x3dbe41fd3db0ffd9U, 0xbe0a5459be12e1a4U,
  0x3c5b333ebd73a64bU, 0x3dc3fe05bcd9ecfaU, 0xbd279a21bd925f24U, 0xbcdda302bdb6e48aU,
  0xbdf5758cbe355c7aU, 0xbd33635bbc467ed4U, 0xbc95684ebd9e7d6eU, 0xbcbf7a023d8c9143U,
  0x3de994b43c8332c6U, 0xbd42cdc63d29ba8eU, 0x3d91017a3cb7c7a4U, 0x3c400e54bc932435U,
  0xbd947b8c3cc155e9U, 0xbcc6360c3d9cac07U, 0x3d9b93dcbca9a97cU, 0xbd5b6319bdb840b6U,
  0xbc11a7cabc1073f5U, 0x3d04d3a23d98ce37U, 0xbbbe08ea3de15835U, 0x3d8885efbc806ad3U,
  0xbd8747e5bd312946U, 0x3cd312a73b4a3382U, 0xbd3483093bffcf83U, 0x3dc3cdc53dad2587U,
  0x3ddcfe633bb606edU, 0xbdb68817bbc532a5U, 0xbd8552ddbc3aff7aU, 0x3d8973eabdafb706U,
  0x3d210ee43d93f576U, 0x3cadada7bc78e828U, 0xbc1bab4fbda4feedU, 0xbca83ca6bc020c05U,
  0xbbfe98b43d1e1b46U, 0xbba87469bd85ae87U, 0x3d3cb84bbca01acbU, 0xbcaa58193ddf6bc2U,
  0xbbd216b13d44efa1U, 0x3c403decbd30b179U, 0xbc8467093cb9951cU, 0x3da61cbfbd110c8aU,
  0xbd3e3b483b8a3faaU, 0xbbb42ce0bd89137eU, 0xba7e0644bc87a814U, 0x3dd56fdcbd3e45f3U,
  0xbd9077fa3e003486U, 0x3ca4c734bd4ab49aU, 0xbbab51003d7bb612U, 0xbdd647913cddfabbU,
  0x3defb3923bd910bdU, 0x3d9bf55ebc1436edU, 0xbc85a7443da1a74eU, 0x3dadb19a3df4fcaeU,
  0xbd4f0534bd01bfdbU, 0x3d4a9bd23cdda6caU, 0xbdd42550bd08c121U, 0x3c03b9adbd50100cU,
  0xbc3203343daf3442U, 0x3c60c973bda64e92U, 0x3e076f383cba6cd6U, 0x3c1fbe38bd8ff066U,
  0x3dd115103ca5380fU, 0xbd902ac53db8fc2aU, 0xbdba68f6bd88a75fU, 0x3d9d77423bdbc75cU,
  0xbd938948bb9faef3U, 0xbc0aef583d2b8313U, 0xbd8f37c03d8aebd5U, 0x3bdb69f23c1f8778U,
  0x3c58f38dbd416b27U, 0xbd9dfc25bda1e6c9U, 0x3daa50433c28c585U, 0xbcd0ebb2be09e47dU,
  0xbd37fe78bdb84651U, 0x3da1b917bd0813d6U, 0xbac109fb3bf9e9a1U, 0xbc57f8e8be0f3df4U,
  0xbbe6c5a9bcacdd2dU, 0x3d6645da3d4bdcd9U, 0x3daee2c1be153d8fU, 0xbd8d439abe3ac66bU,
  0xbde149173d0448c7U, 0x3d4764543d105b2cU, 0xbc7165cbbdbf5929U, 0x3da00f7abd461649U,
  0xbcb1e4313c14712eU, 0x3d849b123deb2001U, 0xbc6e8176bd8a038bU, 0x3d6f282b3b1db949U,
  0x3d4376c2bcd29c17U, 0x3c356c243db1ff80U, 0x3d0d34f5bda8f70cU, 0xbc32bf7bbdb2f6f5U,
  0xbbd2f5023cf7dcd1U, 0xbd1285e5bd86f078U, 0xbcefbec03cd80312U, 0xbd51ca0fbdb2ab8fU,
  0x3d0c7583bb49f811U, 0xbd792e12bc84d524U, 0xbd5cb01dbd619093U, 0x3e24b59dbdc9225eU,
  0xbc90c8e73d7c6047U, 0x3db824523d596da6U, 0xbd459b22bd7a3e52U, 0x3d89a34fbe1af32fU,
  0x3db89a3c3d0c1857U, 0xbc62e16cbc48b6a1U, 0xbc3b99663c723feaU, 0x3a288744be148a14U,
  0x3dc02adc3dc3a128U, 0x3d2715723d90526cU, 0xbcc829c1bc9a7eb1U, 0x3e36e497bdbceb0dU,
  0xbb802dd23e03184eU, 0xbda8ab2f3d7f5a7eU, 0x3c5480433cedb77dU, 0x3c85bf703da2e0abU,
  0xbd5a3d673c87baaaU, 0xbd899e21bd7ba122U, 0x3d91b21e3d32b4c3U, 0x3ce129233c523620U,
  0x3d9e2ea33d54318aU, 0x3d370efc3b376156U, 0xbc90630b3cb41aafU, 0x3d0c5c3abd9c7455U,
  0xbdb4cbea3de342a2U, 0x3d826067bd23ab26U, 0xbcd4c3babd8834f7U, 0x3db2610fbe2a6fc9U,
  0x3d8bfad6bd36b561U, 0x3da12b3cbd83e151U, 0x3c704e67bd180b84U, 0x3cca7bc9bd9aa97eU,
  0x3e4084813d9d8238U, 0x3d748762bbb9791fU, 0xbc7b6b503d035562U, 0x3dc2fc21bd8c21fcU,
  0x3d49887f3dfe2f76U, 0xbd9ee12a3d9e6934U, 0x3d89efc6bcc99de2U, 0x3d8c06e7bd140f2cU,
  0x3dd007c73d55a042U, 0xbd22436a3dd02bb8U, 0x3d5e4daa3d9f1226U, 0x3da0d784bcc16177U,
  0x3db5b7213cf3603dU, 0x3d6a9e323cf60243U, 0x3ba4be33bd408138U, 0x3e144247bdca8c1aU,
  0x3dff1d283bed7dd2U, 0x3d9492cfb9e3be63U, 0x3c9e96863da2dba6U, 0xbcec5c4fbe1758beU,
  0x3d8a83f63e112668U, 0x3d6988f53d9bc6dfU, 0x3dc3c6663d5b1c08U, 0x3c25ca5dbcad58b0U,
  0xbdbb684d3c2ca367U, 0x3ddd05993d80b86fU, 0x3dc8eacf3be38e57U, 0xbd230cd6bdd0579fU,
  0xbe663e2cbd9347a2U, 0x3d7cbeb63db1ff1fU, 0x3d760ef7be63b143U, 0xbd389c4dbdeae006U,
  0x3d549047be2b0568U, 0x3c19b60f3cc64512U, 0xbdb128a1bd7719a5U, 0xbd9b5326bd56d6f1U,
  0x3ddc9c2d3d9257c3U, 0xbc8181f33dc5ed39U, 0x3db29fbc3d7ddceeU, 0xbcf7115e3cf3be0cU,
  0x3d579fa43c496138U, 0xbd09c9db3da35adeU, 0x3dda07293d8b3410U, 0xbd46bc9dbd683d25U,
  0xbd5609913db8c1d1U, 0xbb4dc5633d8cf041U, 0x3d9b32ba3c7e9c19U, 0xbaf11617bdbbc921U,
  0xbdd52623bdc0f160U, 0x3cca45723d01d340U, 0x3dc24bf2bd6bf06fU, 0xbbd488f7be20fffdU,
  0xbc24c45bbdaf3a45U, 0x3dd2efc138f38a82U, 0x3d376384bdb933ecU, 0xbdd7107dbe4a0211U,
  0xbd44fda53c06938dU, 0x3d6da7f93c5921c7U, 0x3c5af04fbe0ecc53U, 0xbbb8aab6be57ab55U,
  0xbab5037fbdf9f35cU, 0x3d09ca8e3d3f8033U, 0x3d999a44bd6f279eU, 0x3ded0b50be06c0f4U,
  0xbd936b51bd97ffc4U, 0x3e0447933ccd13a8U, 0x3c072955bc4f81f6U, 0xbe0c01fdbc1f86adU,
  0x3dc526ed3c1defa6U, 0xbd1048323c088631U, 0x3df56a743cd077e9U, 0xbe48e383bd7c4331U,
  0x3db2ad603d0f29fdU, 0xbd51c46f3bc03e7eU, 0xbcafd7f8bd667faeU, 0x3ab82c7abd5e09beU,
  0xbe516bdabd832c05U, 0x3e17822fbd65ba4eU, 0xbe04e713be3c5a57U, 0x3e6aeee5bdd6347eU,
  0x3cce5fafbdcf40feU, 0x3d05110fbdac5a0dU, 0x3cc5a48dbdcba3b3U, 0xbe1af33bbd6798dfU,
  0x3e47cc75bc2fb07bU, 0xbd0eaca7bb9cb9d7U, 0x3d984ce43d7b55e3U, 0xbdb21e5d3d4992eaU,
  0xbd98e7d03d3a140eU, 0x3dbfae5b3d391a32U, 0x3d79dc71bc3a93fcU, 0x3dc3abc7be1b11efU,
  0xbe1fef26be973176U, 0x3db2cd793d197bf3U, 0x3a9d054fbe8a1310U, 0x3d01fe5bbe4cd0b6U,
  0x3d7a8e39bc388e69U, 0x3da9efb1bb9a9befU, 0x3e2a7c9fbd3d54d4U, 0xbe083294bdd52dbcU,
  0xbcd9251b3d5d8deeU, 0x3c3fd42b3e473578U, 0x3d3afa58bda2fffbU, 0x3d5392013d8520c1U,
  0xbd8417bcbe1beea0U, 0x3dd9aba0bd839f9fU, 0x3cb27ff4bd59b7cfU, 0xbcdd9eafbd5808e7U,
  0x3d447975bdcdad49U, 0x3d9c57f53d18ae0fU, 0xbd72d7c4be194e7aU, 0x3d207169be80236eU,
  0x3d5cbe923d07ab56U, 0x3d4d8b253db76a3cU, 0x3dd6e3fb3d2392bbU, 0xbd020835bd027462U,
  0x3c2aed383dc3a087U, 0x3d967bfa3d6f6081U, 0x3df79a913daa267fU, 0x3d1108b8bcd6c3c7U,
  0x3d6a51473dc64f73U, 0x3d6d8c023d661bf8U, 0xbd0311723d9ef3b0U, 0xbd942ae43b33f042U,
  0x3c31dc5d3b683bb5U, 0x3d8bbad13d819e57U, 0x3c69aee8bd9362feU, 0x3e0bd772bddd7148U,
  0xbdb103a2be5a5cfbU, 0x3d9df6243cb6b046U, 0xbcf69651bd616cf3U, 0xbdb2d7febe3f8b43U,
  0x3df6e3d73da7a33fU, 0xbc23ed613d77ed8aU, 0x3d41e9d63d3b12ffU, 0xbd9eeba4bbd1fc41U,
  0x3d62aa92bd642723U, 0x3caaeb4c3e1a7e78U, 0x3dc3f32ebdde2bb1U, 0x3d4c11c2be09e8e9U,
  0xbdb26ef9bd802b1eU, 0x3d85b1df3d9deff8U, 0xbe11eca1be209f5dU, 0x3d60dcdabe5f82b3U,
  0x3e068310bd3b6185U, 0x3ce740673c8df9a5U, 0x3de84c39bd4170d7U, 0xbdef4162bdaef403U,
  0x3dd2a0b83d4ec96fU, 0xbd7979603cc7220dU, 0x3deb15293c8c174fU, 0x3cc9e9183dd3161bU,
  0xbdc20c82bd9e81e3U, 0x3c9b93133dea24a6U, 0x3cff4f96bdb5861cU, 0x3dd08608bd4e8936U,
  0xbdb37f59bd5c35abU, 0xbc5bb8de3c7f433dU, 0xbe1ae889be016905U, 0x3d2dd4713d961458U,
  0x3dad70da3dc1cce1U, 0x3c85b91cbe043126U, 0x3dd621a13c8c4f21U, 0xbe07022bbda132b8U,
  0x3dc0c05e3d829194U, 0xbd91b35f3e078c52U, 0x3d825aadbd3a335fU, 0x3d03b72abd4b645aU,
  0xbd757dcfbd39e6bfU, 0x3d7a7ab53d918d5eU, 0xbe381103bdfbad8cU, 0x3da7c286be960f48U,
  0x3da90587bcd561d9U, 0xbc80e157bd4312beU, 0x3d64ff17bdda539dU, 0xbe030061bd860f0cU,
  0x3d9356043debaba6U, 0xbd96c51e3dca18d0U, 0x3de03684b936aedaU, 0x3d2f1ccfbe2da307U,
  0x3cd09c7e3dbd7e3dU, 0x3d8c6cf33d01aad9U, 0x3d88f8bd3cbe7272U, 0xbcda1ecfbdb4bc01U,
  0xbe200fbbbd9f7518U, 0x3d7121f7bd151283U, 0xbd80d39fbd3daa07U, 0x3df3cb95be05778bU,
  0x3d899f3d3d8b9aa2U, 0x3d2ae989bd51cd67U, 0x3dbee0183d419743U, 0xbdca0e263c96fc8cU,
  0x3d22a1893c7b1d1cU, 0xbc8fa40c3d92ebc9U, 0xbd2593693ba7ea49U, 0xbd9ffd36bd225fd9U,
  0xbdad3b6c3bef070bU, 0x3d16c2e33d33cdb4U, 0x3d82aea03c99d0f2U, 0xbd9263c0bd39ee2bU,
  0x3cda1235bd693827U, 0x3d9bc423baa7f9e4U, 0xbc7196f13cbaf76aU, 0x3d90298e3d401f09U,
  0x3d079f8d3d6053cbU, 0x3cce68873dcae903U, 0xbdb31454bd00ecb4U, 0x3d52614e3daa709bU,
  0x3de4a38abd18d259U, 0xbd2cc6013d5265d2U, 0x3d8351c4bc2d6093U, 0xbd9e0cc13cbcf5f2U,
  0x3dc288eebd2fa361U, 0x3d8384eebc1561a8U, 0x3b463bb83d05b2f4U, 0xbde72dda3d712fdeU,
  0xbd4b0e5abd29c74bU, 0x3cf8cf84bd41cfbaU, 0xbdd3bed3bde0504bU, 0x3d20e3a4be0f3844U,
  0x3c8ca9a9bd7a410fU, 0xbd9e350bbdfa5917U, 0xbd18a7693d6238d3U, 0xbd7240e3bd6de82aU,
  0x3dfdccea3c5c7951U, 0xbc58cff6bdc6d07fU, 0x3df9c3553e0cfcd9U, 0xbe56a2483d630bd2U,
  0x3d3c76f73df8ccdcU, 0x3cb6de273daa47bbU, 0x3b6e987ebb94af39U, 0x3d59e4a4bd776c51U,
  0xbe223f14bc9dde72U, 0xbcb62bbb3d89a788U, 0xbd7de796be2058c4U, 0x3d5187d4bd9c7883U,
  0xbde628debd51de7dU, 0xbb534118be1f974fU, 0x3d555499bd3f80e8U, 0xbcc3cec33ca7923aU,
  0x3e03e7adbca7dd6fU, 0xbe165f9fbd0b3b32U, 0x3e0cd0683d934f14U, 0xbbce67043da87289U,
  0x3d90f7c93d85550eU, 0xbd0063813d6b19a4U, 0x3d2ed3d83e37f739U, 0x3e12de633e3ce99aU,
  0x3d57e9d13e1882cfU, 0x3db145b33cb69c5fU, 0xbdd8b536bd53f033U, 0x3e5aa40abd1b1bbeU,
  0x3cfbb4413bbd7383U, 0xbdac5902be46d049U, 0xbd8d148d3db57027U, 0xbd59fdbd3dc59524U,
  0x3dc9c8e33d30a501U, 0xbe3f5659be123d43U, 0xbd1e5c273daf3b9cU, 0xbd8e26323df2ad62U,
  0xbb1e58cd3c342d63U, 0xbda923bbbd90b77aU, 0xbd67e8433d9f5023U, 0x3e1d6bffbd08b75dU,
  0xbdd83eedbd5598d0U, 0x3d71049abdb780feU, 0xbd05f0eebc76ccbaU, 0x3d99ad90bd6e59cfU,
  0x3d9253803dbbc211U, 0xbd9c4cfdbca56822U, 0x3db4e069bd8c4669U, 0xbe17ad653c396173U,
  0x3cd5e4c73d8ca8cbU, 0x3bb44cac3c472ff1U, 0x39dbbb3c3e0c6781U, 0x3d95b4b73dce3287U,
  0xbe2332b73d0bbcffU, 0x3d063fc63ccca939U, 0xbd6ccc3dbe4442d0U, 0x3d79e511bd94d23eU,
  0x3bc9c2aabdc732ccU, 0x3d737180bdaefaf4U, 0x3ca68bd2bd127d20U, 0xbda578f0bde8e76eU,
  0x3d861268bd2ac55cU, 0xbd829e493cb87747U, 0xbe166f7cbd5e833fU, 0x3b698ca03d3b0260U,
  0xbd43b2a3bd964bdfU, 0xbd3381e5be1dd334U, 0xbc480b8e3dc9baa4U, 0xbd4a4b673d529b7eU,
  0x3d5a0d59bd04a292U, 0xbdf1ce94bd9d14beU, 0xbd0ac996bc82c7fcU, 0xbb00d54c3d35d571U,
  0x3b72d66bbd0170c6U, 0xbc900800bd6d6b4cU, 0xbcf716c03cc576d6U, 0x3d92d0c73e203113U,
  0xbdb7a43fbdabf41dU, 0xbd774e33bd3f144dU, 0x3ca277b9bc812dcdU, 0xbd27126d3dd31e8fU,
  0x3e32becd3d7c585cU, 0xbd7779d93c59ac40U, 0x3d70ac5c3c23ea51U, 0xbd6e54cc3d6d15cfU,
  0x3d39c1ee3ccde4bbU, 0x3d7e0450bd1406c6U, 0xbe0525e5bc2f342fU, 0x3dccd2213c93b949U,
  0xbb8a8488bdd3bd5bU, 0xbd2d001dbdd37ebfU, 0xbdbefd54bd58c2a8U, 0x3d9f5f523dd71fd1U,
  0x3db711b63d110b90U, 0xbe351656bdd7f9afU, 0x3c1ff77f3df858daU, 0xbdd6f4b83e2b3ee4U,
  0x3e0529923df4ece2U, 0xbdfa5dabbc89bc9aU, 0xbcac0bd83de488aaU, 0xbd88bdec3e665e82U,
  0xbd4c03bb3d855ce2U, 0xbcd04a943c4fefeaU, 0xbdad01083d3c81d2U, 0x3d6b73663e327eacU,
  0xbcc4f27ebca8c1d4U, 0xbb3fab3fbe59a5aaU, 0xbd3accd7bdcc1134U, 0xbc2cabfe3d880234U,
  0x3db327593d372f04U, 0xbd9d1fbabe2ce753U, 0x3b95e4b73d03a9e2U, 0xbe2f76af3e507d86U,
  0xbcccebbf3ce09701U, 0xbda493c13d982d42U, 0xbdbc31033aeab69aU, 0x3d9f66643daa1ed3U,
  0xbe34291cbde411caU, 0x3d1588e3be24d9c7U, 0xbdf192d33d2d4c3eU, 0xbcc5ed4cbce0adb0U,
  0x3e1801a13cfdbaecU, 0xbdc8be9bbde3297fU, 0xbd19ff773ca9bd46U, 0xbdfd75c43dd0c681U,
  0x3cd102c23c498c96U, 0xbc538bc83e064084U, 0xbdb47a173dc21644U, 0xbda8ee553e0bcb94U,
  0xbe3dda53bddbbbf0U, 0x3aed8a31bd9c3c18U, 0xba188119bd33db97U, 0xbd8668b43d40977eU,
  0x3dca9fbabe5183fbU, 0xbd9b7094bd6ec4d7U, 0xbd7dd35dbdcf22c8U, 0x3cfe1d6e3dd0f3c0U,
  0x3d8307db3d23947eU, 0xbe00eae7bdbb772cU, 0xbd0061b2bbae06bcU, 0xbd68c8e43dd42f73U,
  0x3d148b6bbd3c802fU, 0xbde0be7e3a356775U, 0xbdd403f33ce90a08U, 0xbc9e04253d713f8bU,
  0x3cc52efabde1152cU, 0xbe03c0dcbd7b72c2U, 0xbdc07249bbce7978U, 0xbdd34cb93db02dacU,
  0x3d8506d63d80f162U, 0x3cc5ec42bc4122afU, 0x3cfb75ec3d707a4dU, 0x3d62ccfc3b4036aaU,
  0xbdd670babc676e52U, 0x3b421c513dc18238U, 0xbe2cd79bbd0d7357U, 0x3d805adc3d14ee66U,
  0x3b549636bd0d024bU, 0x3c505a1bbe0958a6U, 0xbdbdaf03bd45ad87U, 0xbd0a98a43e0a6e5eU,
  0x3e10555abda79cb3U, 0xbd48f03dbdce22bbU, 0x3d34c3ab3d393f8eU, 0x3cc40b15be55ac97U,
  0x3da6b5e93dcb6990U, 0xbe01399dbd887e8dU, 0xbc24c819bd90bb5eU, 0xbd080cb73d1ad030U,
  0xbd7a1df03d953617U, 0xbceecdacbdb48f73U, 0x3d3941e03d8dda66U, 0x3e5b4e9dbdfae021U,
  0xbdc57b053c72c755U, 0x3cf9e9f7bcf5cecfU, 0xbc9d85fcbd2e0734U, 0x3ce4f289bdb389fcU,
  0x3e0f90cf3db65006U, 0xbdaa641a3d12fa5cU, 0x3d7bde0f3da8ba39U, 0xbca9ffa53c72a312U,
  0xbc4e4ce83d98220aU, 0xbcf6f1eebce0ef74U, 0xbcdfb3823e0b7709U, 0x3da95a793dbe74cfU,
  0xbcc117b63dc47d8aU, 0x3d7de042bd8eefacU, 0xbcebbb353da8e8cdU, 0xbcc29268bcb3262eU,
  0xbd77c5c73ca06d3aU, 0x3c8abaf7bb156c87U, 0x3cf6608ebcf5f1b7U, 0x3df505dbbdad7de6U,
  0xbe0d3f753d16ab5fU, 0xbc74c74abd42dc0eU, 0xbd406d06bc90c72bU, 0x3d3df2f1bdbbd31dU,
  0x3e0f9bda3d725f8bU, 0x3c47c438bdabdbf6U, 0x3d32351d3de0cca5U, 0x3c99bbb63df6f07aU,
  0xbd61ae373cc811ffU, 0xbd343e1fbd234081U, 0x3d3d98883dbb63edU, 0x3ba4fa7d3d8f55c8U,
  0x3dc366fe3e2d50b6U, 0x3caceb9f3d9c2a02U, 0x3d2a99473d666861U, 0x3dce302dbb18841fU,
  0x3c7f07263dc8a3e3U, 0x3d7027803d94e1a4U, 0x3db6185dbd264840U, 0x3dff198fbd9d4073U,
  0x3d36714f3d45c800U, 0x3d8231ddbabb38e5U, 0x3d03c180b9ec4dddU, 0x3d9a58183c825624U,
  0x3d4a73e23db81eaaU, 0x3c18c81fbcef2965U, 0x3d52423f3d7b0722U, 0x3e118829bde985f6U,
  0xbd8b8a6a3caa5a4eU, 0xbd87f6563db66f24U, 0x3d1a47a63d8330faU, 0x3dbe593039eda2c7U,
  0x3d9de7243cfc618cU, 0x3cb40f7d3dc315f7U, 0xbc8cb6273d0c3c45U, 0x3c97d848bd1a1854U,
  0xbd51ff9b3d53a5e3U, 0x3db678b43cbb1e20U, 0x3d7145023e041f42U, 0xbbe399f4be244bf1U,
  0xbd03a61e3dfff0c2U, 0xbca9e53a38c5bb3aU, 0x3c075e2e3dbbb6b1U, 0x3da9c4ccbdb1be42U,
  0xbd591f2f3da7c39eU, 0x3db2d7cebcfeab31U, 0x3dbdf58d3c866e73U, 0xba878cb1bc33bc52U,
  0x3afdad1e3de85849U, 0x3d12ba423d703812U, 0x3d34366cbbe1671fU, 0x3dda338dbc966f98U,
  0xbde0c253bda257e5U, 0x3d1efc99bda0eabdU, 0xbd5552593bf1a0a8U, 0xba9ada01bdeb3e34U,
  0x3cdb6dbebc1c173fU, 0x3d3f20a03d0459adU, 0xbd9a3511bd0cd253U, 0x3d629a7abd2311aeU,
  0x3d029b693b3df8a9U, 0x3d08986f3cfa842eU, 0x3e0cb7453d67e1e7U, 0xbdb12cc7bda23d84U,
  0x3cbf49043da3e103U, 0x3c9e90993d5359e9U, 0xbbf269183d4270c0U, 0x3ad75879bd5b6c4aU,
  0x3c5206f93cb10b71U, 0x3d92cbc7bd986b54U, 0x3d8416813d24d572U, 0xbc5459f8bd9314a7U,
  0xbdffd965bc030a15U, 0x3cd2875d3cd3122aU, 0xbcb15701bcc97122U, 0x3e1cd054bdca654cU,
  0xbd3201a9bb61d70cU, 0x3b5730583c22cf73U, 0x3d06e0f5bcd19529U, 0x3d830be23e11b665U,
  0x3d8b86b63bcede1aU, 0x3d96b75abd615a1cU, 0x3dedbd95bccee7aaU, 0xbcbb29d6bccdc00bU,
  0xbe13740abc65c792U, 0xbd42c7033d0c4ce5U, 0xbd0998583d0a2fdeU, 0x3d31f77abd8e4adaU,
  0xbdf9934fbdd18306U, 0x3dab9de8bc159489U, 0x3cae9800bdca1adeU, 0x3d4663eebe30830eU,
  0x3dc5b6c73dd5449cU, 0x3bb1efc7bd8a5b6aU, 0x3d7985153d8fe123U, 0x3b8ac8b4be1e6170U,
  0x3c472c603c7b171eU, 0x3d1ef864bcc42531U, 0x3c9d753c3dc1b86bU, 0x3d52455b3e62e31eU,
  0xbcd583bf3d6d121eU, 0x3d11ba2a3b31f64fU, 0x3c035316bd82161fU, 0x3d1a88db3c4c5ca1U,
  0x3d984160bb2a500aU, 0xbcd061e73ccfd594U, 0xbcfc139a3c228198U, 0xbd5552433e1a3671U,
  0x3d4790f7bbc32c36U, 0xbc698e84bd29de8aU, 0x3c1caf853d5cd1beU, 0x3bba72993d821ad1U,
  0x3ca680ad3d6d7547U, 0x3d45ba2b3d3e1667U, 0xbd027df83df6b08cU, 0x3c74978b3e42f455U,
  0xbd8ebfa13d9bc6f8U, 0x3d893bc6394f0ca0U, 0x3d4d3fac3dc49eddU, 0x3e0a5639bd4791bdU,
  0xbc44366a3d65ea2cU, 0x3d235e123c9258b7U, 0xbd17c62c3e2d85d1U, 0x3de0ed8c3ca09362U,
  0x3e0959b03da62c97U, 0x3d855a783e01a845U, 0x3e06f7df3e11c3b4U, 0x3ca58f53bd38d786U,
  0x3c9d4eb33cf35ce7U, 0x3ba0dc5b3e2c20b0U, 0xbd64aa543cef0284U, 0x3d6a110abcc76949U,
  0xbc54eae03e08acdeU, 0x3ddf903c3d67c5e4U, 0x3bac8ac53d8b75efU, 0xbc81d9e23cb9d1c4U,
  0x3d6a03583da15c81U, 0xbd7349d43d54f677U, 0x3c2dfee43be0f68cU, 0xbd9aac9dbdf54e16U,
  0x3d2175c43defcd1cU, 0xbcee57983d37b31aU, 0x3dc3804d3de188ebU, 0x3e1b61cabdc1cd97U,
  0x3d09ae8c3d621f2dU, 0x3bf0fce73cc47b4dU, 0x3cbe2c2c3da83d3aU, 0xbd8c737cbde8af67U,
  0x3e5c2ff03de7d708U, 0x3d7f83cd3d7b5124U, 0xbc0dd1cf3d6f2d62U, 0x3d4365aebb276b31U,
  0xbd41e3f6bd16f624U, 0x3ba855f53b3fdf12U, 0xbd0966973d8307cfU, 0x3d4d4df6bdf7bee4U,
  0xbc3fe0de3dc69c02U, 0x3b8ec2f43ceb9ec3U, 0xbd10c8243e04e707U, 0x3cae1498bd2187ceU,
  0x3dd812013d458289U, 0xbbc167a53d065b60U, 0x3a0787e43cc02f41U, 0x3c561765bd2e8c5cU,
  0xbd9618ddbc45df15U, 0x3d395a223ce05776U, 0x3d8f7d513a24e236U, 0xbd6dca56be53525aU,
  0xbcc5fb6c3c5a863cU, 0xbd35c4963dcbf706U, 0x3b66b487bcb5d66fU, 0x3d3db097bc74d98cU,
  0xbdee6f62bb6622cdU, 0x3dbea1aa3d88b1cdU, 0xbd9b91d5bd34047aU, 0x3d6c83b8bd43f188U,
  0x3ad4f24a3d5857b0U, 0x3da95ab73dae3856U, 0xbd0774a83d03f116U, 0x3c3c16a73bd8bfb7U,
  0x3d3d9fb43de49379U, 0x3d351c413d0221f6U, 0x3d448b553dab6c67U, 0x3d852849bd5d5f19U,
  0x3e3228563dcb2558U, 0x3c8d3bb73b289057U, 0x3d90b5ed3dbbccecU, 0x3d833d223d835ef4U,
  0xbdaddc4c3da527b6U, 0xbd066481bc472fb0U, 0xbd68a8413c74d303U, 0x3cda83b6bcbf9c3cU,
  0x3deef916bc9dc9fbU, 0x3c7b3315bd9166c0U, 0x3dbcabdebcb4d529U, 0xbde64f803b4bd9c7U,
  0x3dbed5a73deb37ddU, 0xbdc9ad253da4d5dbU, 0xbcf4c0583dd7ee23U, 0x3d4a09203d021100U,
  0x3b0d25d13dd63d1fU, 0xbdb1cb5b3d2d1677U, 0x3cd26c283d69e458U, 0x3be936e9be0e2d6aU,
  0x3d3e8d6dbd8938b7U, 0xbbf058b8baa0a95fU, 0xbb839bf5bd39dd3bU, 0x3d35b61cbc8bc7ceU,
  0xbd918103bd271818U, 0x3c75b4283d9b7c4dU, 0x3dd1416fbd1e5f67U, 0x3d892af23e00fae7U,
  0x3d8e963c3dcb02a5U, 0xbd219c2b3d34a7cbU, 0x3bee04533d7dcb42U, 0x3cf1773d3e1789aeU,
  0xbca347583e059cd3U, 0xbc0160c33d792402U, 0xbc38f8023ddefdcfU, 0x3d5638583d5cbc56U,
  0x3c07a7483d80fbc7U, 0xbd39f54f3de59096U, 0x3d9cd82b3d905841U, 0x3d0cb1633d6087d3U,
  0x3d85324e3d2eceb9U, 0xbc90ea263a970c88U, 0xbdbd10553de6ab04U, 0x3c94d1723bbfc859U,
  0xbd4e6bfc3c078496U, 0xbc601423bd78f5b7U, 0xbd4ee74c3c4f23edU, 0x3dcddb9abdc76124U,
  0xbd922acf3d9d80a6U, 0x3c3d4036bdc1a83eU, 0x3d0430bd3d678257U, 0x3da5e6e73dac3e1bU,
  0x3d1e02263d9890c6U, 0x3c20eb6a3db87936U, 0xbd43681b3d89bad9U, 0xbc89929d3de78c57U,
  0x3c5ac3ab3e25d18eU, 0xbccbf896bd583736U, 0x3d5aa7213dbb5692U, 0x3df3c8afbd233242U,
  0xbda3e5c83e21ab87U, 0x3cf36c603dd958b3U, 0x3d771a5c3d0dcd47U, 0x3e2f36b6bcd8340cU,
  0x3cb2bd383c5aa7baU, 0x3bca0faa3d77c472U, 0x3bfc863bbd2cfad0U, 0x3de21e953dd24d87U,
  0x3e01584c3dd5316bU, 0x3cfba30fbdac93c0U, 0x3d1a15803d245891U, 0xbc78d0ae3da0bc7dU,
  0x3d04f8b53d18ed05U, 0xbd5ad095bd276254U, 0x3cb1b1e63cead764U, 0x3c60a1eb3b8d3d58U,
  0x3d9be9083d2f625bU, 0x3d413b51bcc1bfebU, 0xbab72d403dd846c2U, 0x3cae47483d73eb3cU,
  0x3e0680763d3b3187U, 0xbda26858bd44e5f9U, 0xbccbadf13dec05e5U, 0x3d65d16cbc6fce1fU,
  0x3dafe7973db3ee5dU, 0xbd8493b8bd89181fU, 0xbc420363bc2b2aedU, 0x3ddd5415bd912c66U,
  0xbc230782396f065aU, 0xbd6854d73dcd9964U, 0x3d86a367bd98efabU, 0xbc96035abe2b0c6dU,
  0xbc420a453dd238c1U, 0xbcba69bd3ccf7681U, 0x3d0d03babd91a54aU, 0x3c0d7d59bdab4f27U,
  0xbcd92d12bdb9a39dU, 0xbd27cddebda2376dU, 0x3b2bc5d3bd5258d0U, 0xbcfc8c7ebe25cfe7U,
  0xbcc445c43d3999caU, 0x3dc14b753d9a0e8dU, 0x3dc1b1c33dd8ecffU, 0xbd69505cbcfbb561U,
  0xbdf6df2b3ca01f81U, 0x3db6cf953df1036bU, 0xbd3aaf9bbd9cec0fU, 0x3d5d0a1d3ddc1a96U,
  0xbe02db7c3d56321bU, 0x3daf4db9bae63fdaU, 0xbd8d9510bd8b406bU, 0x3db635f93ca13a7fU,
  0x3dc964d53d8a6a79U, 0xbd633e73bc84240fU, 0x3dd002013dbd0ce9U, 0x3e2599493d066c1bU,
  0x3d8631c83dee937cU, 0xbd97bcf23c399c47U, 0x3c1092ec3dcbdcfaU, 0x3e03a5bdbdb2d16bU,
  0x3da2fe9f3d9b7516U, 0x3d8df7debd673266U, 0x3c5644003c9e7b5fU, 0x3d090fffbe5a6548U,
  0x3d820f373d164204U, 0x3c1ad59cbd6ec04fU, 0xbb8b0167bc4c5d1fU, 0x3d6cf387bd45fab1U,
  0x3da488273ded263bU, 0x3c604d4f3c9859c6U, 0x3ca8a1b63de94c78U, 0x3e1c30fabd384882U,
  0xbd4662bc3da0d523U, 0x3d7476573cb9cab5U, 0x3daafc9f3cb5193fU, 0x3dc180313c147c58U,
  0x3d72b8ff3dc43b9bU, 0x3d230d693d996742U, 0xbdafaaf43e4e269dU, 0x3d8e2228bd12e863U,
  0x3de952cb3e11689bU, 0xbda23b48bd89dcdeU, 0x3d8a75a33e2c8ac0U, 0x3cfbd862bd77e1c4U,
  0x3d51ad133dc616e5U, 0x3d0118983be59837U, 0x3dc967533d7867adU, 0x3da9ea24be2139daU,
  0xbbbef17e3d476227U, 0x3c0252953cf630aaU, 0x3dc168b73b2cc104U, 0x3df3cff23b0d8681U,
  0x3d61b7973d35f462U, 0x3d5067f83dd0e05dU, 0xbcb726aabdb7dfb3U, 0x3da6865bbe2d5915U,
  0xbda27c1a3e12b08cU, 0x3daadff93db8bc04U, 0xbd7751643d89ad5eU, 0xbb0770bebd6b7b3aU,
  0x3d4d57db3cd39053U, 0x3d9b9e0a3cbc6ec2U, 0x3d35263dbbc2046cU, 0x3d63a51b3e08e9b8U,
  0x3dfa8a803d8d1375U, 0xbb41a88fbc897f1bU, 0xbd1561d23dde16a2U, 0x3d8275dd3d71cbc2U,
  0xbd625a373ddaec28U, 0xbdc082b93b5b9269U, 0x3d4950fcbb8fd72fU, 0xbda71ec1be6225b0U,
  0xbd2a1bc7b9c72e51U, 0x3def4836bc650500U, 0x3e043d30be2194bdU, 0xbcf3fb6fbeb56e34U,
  0x3b1e24063d0b0d16U, 0x3da415693e405d37U, 0xbd865215be86420eU, 0x3e010891be78c349U,
  0x3d72602dbe0d9d29U, 0x3d9a58a4bce16bbaU, 0xbe283554bea55b34U, 0x3e064ad1bdf8ea68U,
  0x3d9580a1bdc385d3U, 0xbcd34e85be08aad3U, 0xbd2735f13b25e873U, 0x3cbb7771bc928ba9U,
  0x3d124d98bc8fd524U, 0xbe021ca13ca06d10U, 0xbd37ed1bbc080dbbU, 0xbc494e843e231488U,
  0xbd994c913d66244bU, 0x3c2313d2bc404bf0U, 0x3d7807f93d8e1bf5U, 0xbdb9ce443d7e3cfdU,
  0xbd70aedb3d352187U, 0xbd5750223cf67214U, 0x3df4652e3c9c352dU, 0xbdb61921be2afbacU,
  0xbcc8b5733cad9cefU, 0x3dbdda5b3dd1f99dU, 0x3cf68fd8be059ae0U, 0x3cb09c07be8d1c14U,
  0xbde9f2a4bd862ff1U, 0x3dfa26d53dc1f9ddU, 0xbde64c45be60b6bcU, 0x3d973478bd8d6432U,
  0xbe06b656be69f535U, 0xbc1b5501bd6f3d4dU, 0xbd8e4d37be6ea2e4U, 0x3daa52953bc7e64eU,
  0x3e0218e43d025eb6U, 0xbd073876bd9248e7U, 0x3d8b88163d6496eeU, 0xbda1b6523e1d5871U,
  0xbb79003c3d93d499U, 0xbd98c99cbdd5d8f9U, 0x3db628873ddf6a77U, 0xbce7a6923cef7ca4U,
  0xbdc848d93d2c8fb0U, 0xbcb689323d9987cdU, 0xbccbffa73da60b7aU, 0xbbbc360bbc23a76dU,
  0xbd3ef4963d255278U, 0x3d16cf783cbbe53aU, 0x3d3cefee3d48795eU, 0x3cd29148bde9512bU,
  0x3c541be03cc56715U, 0x3d9878663ded74ebU, 0x3d9d0d28be0977afU, 0xbcc7cb4abddef94cU,
  0xbd07bc3abd36c72bU, 0x3dddb5343d923214U, 0x3c875de9bca2aa4cU, 0x3c9d7fe1bcd374ffU,
  0xbd30a161bdd902ebU, 0x3df9a789bcdb3be2U, 0xbe02cc91be5a3247U, 0x3da43eeebca61e4bU,
  0x3d151b10be3fcf3fU, 0x3c5ab61dbde4e9dfU, 0xbd6cc425bd65a298U, 0xbb614dd23e45556cU,
  0x3da653363ddd9ae1U, 0xbe25c481be00d975U, 0xbb34ed333de26a13U, 0xbe099b2b3e6d3226U,
  0x3dab25983cb72804U, 0xbd726d52bdb9f414U, 0x3da983bbbb7b663aU, 0xbdfdb1e3bd35dfbfU,
  0xbd8614503ce1a5b6U, 0xbd3893fb3e037c31U, 0x3dd9f321be2d0ae3U, 0xbe12a180be996299U,
  0x3b551a043cca4167U, 0x3dbfb4fd3e20f20dU, 0x3dc00d93bdd6631bU, 0xbdab9859be1c1c44U,
  0xbd3a95b0bde5578eU, 0x3dab5fbe3e1cb6f3U, 0x3d496266be6403dcU, 0x3dd09690be88ea41U,
  0x3d77c41dbd602872U, 0x3dd891e63da2858fU, 0xbdd66706bd94b819U, 0x3d9e86f1bd15bb60U,
  0x3de5444dbcdbe1bfU, 0x3e32a7713ccb0b52U, 0xbb7b951c3d10cef2U, 0x3cabd4e83d139cb6U,
  0xbc2dbb163cb671d0U, 0xbd52892f3cec9f1eU, 0xbd8e12843da09311U, 0x3dbb4bb63e5ccfe6U,
  0xbcd926f53d665089U, 0xbda2bc20be24c71eU, 0xba6096aa3e51dca9U, 0xbda8f57e3dd3a581U,
  0x3dcfba083dd36b88U, 0xbdbfc14cbcbb0aa7U, 0x3d8a99603e36fff5U, 0x3bb4c7473e3484dfU,
  0xbb73f4ae3e09be20U, 0x3c88a4513de8bd18U, 0x3dc417763de2e768U, 0x3db202bbbc1fda1bU,
  0x3d4757443b5854f8U, 0x3d45089bbc316506U, 0x3d39d226bc92b50eU, 0x3d1eee40bdf112dbU,
  0xbc9a414c3c6867ebU, 0x3db3457c3dae6228U, 0xbd1c6853bdb1957eU, 0x3d899d44be9c116aU,
  0xbb83fa89be25d3a8U, 0x3dd0a8213d97e362U, 0xbda6adebbe09ae7eU, 0x3dd0d9d0be1dea54U,
  0x3e2b10d2bd942fb9U, 0x3d4a2075be2ba038U, 0xbcb7c4b4bd2e5ec3U, 0xbde07bd53d64894aU,
  0x3e248b01bda56bc1U, 0xbdf731e3be254077U, 0x3d92fed43e0f38a4U, 0xbde234263dc35aa8U,
  0x3d8b6b343db7c9d6U, 0xbdb66f29bc89e2ceU, 0x3d6951383dd8f107U, 0xbd9a51df3e7a8b90U,
  0xbd2e091f3db5f6b9U, 0xbc127b653c99a7afU, 0xbcfbd9bcbc68589bU, 0xbdb22096be28e858U,
  0xbd584ce7bc994c16U, 0x3d562b483d9380b5U, 0x3dddd5c0be163bedU, 0xbcdba645be847caeU,
  0xbdbb7dcebdf7b06cU, 0x3cdfa5573dd30137U, 0xbde098ecbe63a240U, 0x3d3957b9be824b57U,
  0x3d98f7e5bd3408a2U, 0x3cf2d038bc60c792U, 0xbdb43ad1bdad45f3U, 0x3b9a3a7fbc17bfd5U,
  0x3d79b634bc5ff30dU, 0x3d1ad5bdbc4d5136U, 0xbe1c18a13dcccf13U, 0x3e0a18933e6ab237U,
  0x3d860e193d88b462U, 0xb9a46597bd99a2d9U, 0x3c832dd03d86afa7U, 0xbd75f39b3de60e28U,
  0x3e5615553e3fe189U, 0xbe474955be24a09bU, 0x3bd34eeb3e3989f1U, 0x3bda7f8e3e4ad0bbU,
  0xbd96ee573e451be4U, 0xbd62b2ffbce184f6U, 0x3d2b7df53d3d0fcdU, 0xbd9f007fbda0b98eU,
  0x3c3c84cd3d49968dU, 0xb9973cf23db74126U, 0x3e19ef5abda9e9e2U, 0x3cd4fd2abd4bc8bcU,
  0xbce5d52abab06612U, 0x3dc623633ddc6d6bU, 0x3d433bd9bdbcbd26U, 0x3e2666fbbe931b48U,
  0xbc1462a1bcba7829U, 0x3e18a41a3da1c907U, 0xbd9fa2babe0e159aU, 0x3d9c24b83de31b74U,
  0x3df2777dbb7f2957U, 0x3e0b9b7dbde88d97U, 0xbe0841823e0abf65U, 0x3d7e6d9a3e0a0bd4U,
  0x3e018ef8bb9995a2U, 0xbda5abb2bdcbcbceU, 0xbde1fb2f3e65cc9bU, 0x3c00439f3e49fedaU,
  0x3e0d49663dd6096dU, 0xbde18558be47f9c6U, 0x3d7828ca3e4c0c2dU, 0x3bd8e9cb3dd254c0U,
  0x3dc2ae503cc1736cU, 0xbe8760853cf34318U, 0x3cfb288e3e192111U, 0xbdb4b8933e04a445U,
  0x3e369bef3cd0c945U, 0xbdb7fafbbd850f57U, 0x3e4080443df25964U, 0xbdb96a27be4a29c3U,
  0xbd8b67a23ced68dfU, 0xbcdf2ba53e09bfeeU, 0x3d142739be287c9aU, 0x3c7d7081bee2ae58U,
  0xbda5cac7bdfd44c0U, 0x3e1c9eb33d290cf6U, 0xbd2decd7bda3d03aU, 0x3c0fff8bbe6bd9efU,
  0x3d3463f5bdcdbbb5U, 0x3e19b9fe3deb2bbfU, 0xbd377b3bbe38ceb7U, 0x3d3f47583d640978U,
  0x3da69f03bd86101aU, 0x3d8a9eabbd7460a9U, 0xbd133281bd122aebU, 0x3d39b4ac3a0850e4U,
  0x3e2031adbd390d4eU, 0xbdb755b6be09d039U, 0xba9a33dd3df2234cU, 0xbe07cfaa3e648cefU,
  0x3d9b4bc33dfbde64U, 0xbdc52a86bd5b30a4U, 0x3dada77e3e445a15U, 0xbda6afa13e21ad2dU,
  0x3cffcd103ce53381U, 0xbd34a486bd874de3U, 0xba96478abba53660U, 0xbd26680fbe4012cbU,
  0xbda2d8a5bc980c2bU, 0xbbb690ae3d825c7aU, 0xbc40e011be0e1b0aU, 0x3d329a67be832c18U,
  0x3c649f07bd89d1a5U, 0x3dc67fee3d81152eU, 0x3d40b5dbbe346b52U, 0xbbc7c621be9524d5U,
  0xbd15282fbd8353f1U, 0x3d94b9e93d0e4fb9U, 0xbdd85c34bdd72272U, 0x3e2dc61fbdc0802bU,
  0x3c76347bbe18d8c5U, 0x3da9f1e7bdfea8f0U, 0xbdd3c1f13d37588fU, 0xbce94fe53d1edb00U,
  0x3e09d1fe3d65f57fU, 0xbe034eeb3cc858afU, 0x3bd07c233e173b99U, 0xbdcac32c3debe523U,
  0x3ad5feb8bcf838d5U, 0xbda8cab9bd90067dU, 0x3d1e163a3d867585U, 0xbc995f343e024081U,
  0x3b7564c03d182148U, 0xbe2dcc8fbc345a83U, 0x3da2aa14bda1c302U, 0xbd87f162be8fad53U,
  0xbdb110b93df8805dU, 0x3d613343bb78f1abU, 0x3dc28b613cc18157U, 0xbb3ceb1bbe878ec2U,
  0xbdf00989be057f5dU, 0x3df9e8ce3e16dfcaU, 0x3dc24e39be0f2e2fU, 0x3db6a2ddbe879978U,
  0x3d585c20bca2dfbcU, 0x3e084f4e3d9c3122U, 0xbca99cc5be297b5cU, 0x3b633116be132ebfU,
  0x3d0eb934be5b64a4U, 0x3c2d71f53d8b8b4dU, 0xbda32a103c9c9be1U, 0xbd9608babd3c8a6cU,
  0x3bbba615bd9724fbU, 0x3cb1859bbd8eec08U, 0xbd373883bdad02adU, 0x3c98d73d3da7b0dbU,
  0x3d83b54fbde67f36U, 0xbd652f23bdcb29bfU, 0x3cb066fc3d8917cdU, 0xbe1d801e3dd643b9U,
  0xba98fe8c3dcbff23U, 0xbd4032e1bd49d1edU, 0x3e0ff7da3e5e16edU, 0xbe6d43923d656c5bU,
  0xbe0363c6bd054ed8U, 0x3c339e5d3e044da4U, 0x3d40460fbd846c22U, 0x3d2f46ddbe5a6a09U,
  0x3b5dfcb63de76dafU, 0x3db1efbf3dfc661cU, 0x3da47fa7bd2a9bd9U, 0x3cb1ef9dbdc38cdaU,
  0x3d8b45353d2c1544U, 0x3e0447083de29100U, 0x3d7783f6bd5e1b6aU, 0x3d73f648be53dac7U,
  0x3d77aa3a3ccacee1U, 0x3dd9d8643dd4bfa6U, 0xbdb495363dc57749U, 0x3df7231d3da7a3eaU,
  0x3df33ef9bb4fa64dU, 0x3d363e16ba998a18U, 0xbe2448e93cc3356cU, 0x3d8186023df195ffU,
  0x3dec0dc0bd562d19U, 0xbcb5bca0bdf0678cU, 0xbe03ff093de94658U, 0xbdea620a3e03515cU,
  0x3d88047b3deb37dbU, 0xbe3bba79be1349feU, 0x3cd6287c3dda807bU, 0xbde6accf3d598ddaU,
  0x3cb3749e3d2611aaU, 0xbd71cc003dd0066aU, 0x3dd3c9703da330e1U, 0x3d430fabbd8e7722U,
  0xbc83da8f3dd3be47U, 0x3c1bba4c3dd3138bU, 0x3d0b3ed33c6397bfU, 0x3cd69edcbe8ea929U,
  0xbd2c89afbc9dbf04U, 0x3ded5a313da7235fU, 0x3d8724bcbdd6ef88U, 0xbb93e69fbe05004cU,
  0x3cde2df3bcb1de9bU, 0x3dc637293dd9dab2U, 0xbdae23f1bdd59853U, 0x3dfc421d3cbcaadeU,
  0x3d96121bbdae1118U, 0x3e1392c7bd5e4ad4U, 0xbe686662bd22553aU, 0x3de6f8da3b9d5a2eU,
  0x3e25eaf0bde54cfcU, 0xbce048cfbe992efaU, 0xbe088f3a3dd12e86U, 0xbdf145df3e11fa43U,
  0x3d9a0260bd079922U, 0xbe1b56eabe30d3aaU, 0x3e16c2f43e70e15dU, 0xbe7fb7803e817052U,
  0xbe1005973b6ff094U, 0xbddf63d2bc501105U, 0x3d8357ce3dd9008aU, 0xbcbde1393cfb2a43U,
  0xbd67d3d53ce180a1U, 0xbb46ab873a6ef8caU, 0x3df5c595bd9845dcU, 0xbdd4c58abe57bfbeU,
  0x3c57f78dbd6ab21eU, 0x3e07cdab3e451f87U, 0x3ac5851cbe4b40cfU, 0x3df00e1bbdd5cee4U,
  0xbdb2abd9be1f6de1U, 0x3e1664223e18e53cU, 0xbe286e6fbe1f7c8aU, 0x3d89314fbdc8e8fcU,
  0x3c980c7bbe1e564bU, 0x3c027a0abdcbee2dU, 0xbd9550ccbd1d4b15U, 0xbcbab9e5bdca8dd1U,
  0x3d8a2a0abdf498e4U, 0xbddad2fcbdbeee8fU, 0x3b3ed1583cc4259cU, 0x3e14a085bce80a22U,
  0xbceb107cbd9d5113U, 0x3dd082a3bc227df1U, 0xbc1ac039bd15d7baU, 0xbe2656763c0e740bU,
  0x3cdc70f93d67867fU, 0xbcbd05aa3b4585efU, 0x3e0d5c073dca56c7U, 0xbe48cfe23d8c1190U,
  0x3d7759963e162802U, 0xbd2d70ae3d454cc4U, 0x3adc96e53da32b91U, 0x3d13699abd986993U,
  0xbda03524bdb9d2e7U, 0xbcfb7f213d9b4c19U, 0x3d3fab58be16cef2U, 0xbb80fc43be7bef03U,
  0xbce643fcbdd9893aU, 0x3db9c48d3d868b32U, 0xbcb24235be34b53dU, 0x3a5083ccbd3b32e0U,
  0x3d336b75bdc8fd54U, 0x3d9ffd32bbc5bf31U, 0x3cbde1e73d883a73U, 0xbc1ead41bbd89733U,
  0xbd625b2e3cde9815U, 0xbd1daacdbd6c345eU, 0xbcf1d9053d3328bfU, 0xbd0b1a2e3e019fc5U,
  0xbcab00313adb05dcU, 0xbdd75f39bdb1b5f5U, 0x3c6cd1fd3c6762a3U, 0xbe3527293caef5b2U,
  0xbd9df134bdf2851dU, 0x3d36837c3dfbbde9U, 0x3d80809dbd7274d6U, 0xbd4dfe80bdba7e5bU,
  0xbc9ee514be492942U, 0x3c668bb53ce1a1d4U, 0x3da36cdcbd928091U, 0xbd2c0b62bd07e83aU,
  0xbd90223bbdb490fcU, 0x3da84f71bd8977cbU, 0x3925ed4dbe0ad4a5U, 0xbcf220893ca43603U,
  0xbdd5c085bd42c90aU, 0xbd2d99163d80c728U, 0x3dee3d34bd69063cU, 0xbdc5a7fcbd777a07U,
  0xbd61d5b6bde097b3U, 0x3d77f3163c2a476fU, 0xbd260e32bca2aeceU, 0xbb883eea3e00e13bU,
  0xbd59f5cebd6a2461U, 0xbb30da163d8bf9e8U, 0xbd866535bd99b526U, 0x3ca292a0bd204a81U,
  0xbd202a4abdcce48fU, 0x3d535ca73c50f042U, 0xbe2680c53c88edeeU, 0xbae4677c3db9f117U,
  0xbcbed29f3d904f0aU, 0xbd1bb6d4bcf80fc0U, 0xbc67b2cf3d9594ecU, 0xbe4715ffbdbe1e5cU,
  0xbcfc2d0a3c93c456U, 0xbdb0b8543cbbe007U, 0x3da7939dbc5ac577U, 0x3c2ab5f63dc0df53U,
  0xbe53d637bda7d2feU, 0x3e017a843dd56d24U, 0x3b1ca73dbd211a6eU, 0x3ce1609e3dae10baU,
  0x3db56075bdcc6ecaU, 0x3d9eb6f53cd452d8U, 0xbdbcbd86bde20e98U, 0xbd682010bd68b248U,
  0x3c5c3ab8bd996cebU, 0x3d2e4b6b3c997648U, 0x3d64f83dbd456521U, 0xbdd6f46db9cd9e69U,
  0xbcabbb81bdb056a6U, 0x3c574942bd886b04U, 0x3de940fabd7928d6U, 0xbe29650cbd2c42b6U,
  0x3db76003be1386bbU, 0x3da153b63cf729faU, 0x3da4e469bd5d622aU, 0xbe1ff2fc3ca87319U,
  0xbde43055be231d40U, 0x3b7b0a563c11b8d1U, 0x3d1320d73c27f341U, 0xba038a7abc8c3a4eU,
  0xbd0ea599bdd1a33fU, 0x3d4d6f593c8255d8U, 0xbd65ce703db350abU, 0xbd31487dbd220679U,
  0x3da47fc53cacdf5aU, 0x3d3d459f3d3072a7U, 0x3d85d861bc8c5d90U, 0xbbc5dd783e265042U,
  0x3db55de73d4a3045U, 0x3cdff2003bc33b4cU, 0xbd306a073e186badU, 0xbd8879e83daa6564U,
  0xbe2200663cdcfa24U, 0xbb4d8de33d871290U, 0x3d2fac5ebdad8955U, 0x3df466abbc14b962U,
  0xbd544fbf3d5f364fU, 0x3d70f6773cadb477U, 0x3d4f460cbd583efaU, 0x3d717c1e3c333e1cU,
  0xbd372c093a64663aU, 0x3d89548cbceb810cU, 0xbd9ecc55bd62a97fU, 0xbd1a6f9d3dcd186dU,
  0xbd92ac7b3ae8fad5U, 0x3da5f0d5bcecb505U, 0x3d3e3bb53dbe15f1U, 0xbd7096d73e12e78cU,
  0x3d860f2fbc341939U, 0xbbf984f23d445d30U, 0xbd1a1e893cb6db5dU, 0xba7a97393dcfab5cU,
  0x3d84d8003d7b4277U, 0x3d010f3f3d9ddb16U, 0x3d2e23473c616576U, 0x3d7d79b53dc76921U,
  0xbd384853bcab1f8aU, 0x3d27ae5d3c0376a8U, 0xbc973fd2bd663897U, 0x3c51e57c3e0bf0ecU,
  0xbc911cc8bd3e2090U, 0xbd7ac449bce0ce2aU, 0x3d687d3e3d59b385U, 0x3d1b626fbc8acd72U,
  0x3c0284813d8f56eeU, 0xbd153e5ebcdb4da6U, 0x3ccb021c3d61d860U, 0xbc9921a53da96859U,
  0x3d1dab583cd3f528U, 0xbcec4096bd976817U, 0x3c2dee263c04b8beU, 0x3c4b054c3e144a43U,
  0x3d6d97203c3b35fdU, 0x3ce124f03d766c64U, 0x3c8d2d023d26025dU, 0x3e37944abc84d577U,
  0x3c4bd884bdb2a0acU, 0x3dd5499cbc0bab49U, 0x3cba96b4be1cd5c0U, 0x3d84a478bc13c39bU,
  0x3d28c720bd8ece8fU, 0x3c3031e0bcb6ce14U, 0x3d770fd63ca20e51U, 0xbe8e1d593df83c95U,
  0x3d91937f3dd1685bU, 0xbcf6a9cb3d8329f0U, 0x3df1bdc83d65103eU, 0xbd7c8cab3decc857U,
  0xbda80b0abe1e9c2bU, 0x3d5d27db3de40a33U, 0x3c92e0c3be776d43U, 0x3ccdd89bbd8bde14U,
  0xbd202b78bd8f1e29U, 0x3da4b2143d2543a0U, 0xbd941507bcc54f0eU, 0x3bcb71253d9a24c0U,
  0x3d9d30e8bd5445edU, 0x3bb2f33f3bc333a3U, 0x3cd1cf053d1be923U, 0xbd9161663b39ec6cU,
  0xbc7a2dd6bd73e446U, 0xbd11d06c3d4ef875U, 0xbd139501bc6459e8U, 0xbde576f03dadf80aU,
  0xbd8cdc5e3c80ba89U, 0x37c994ef3c3cdff7U, 0xbcd6378dbd7324bcU, 0xbb3be3a7bd461a8cU,
  0xbd75749ebdd3b3a2U, 0x3e08ea2a3c7e9ab9U, 0x3b893a11bd7de960U, 0x3d8198313c9b0543U,
  0xbda51d86be460d4dU, 0x3b3218ed3b444fbfU, 0xbdb0160fbdba676eU, 0xbc1e2997bdc7042bU,
  0x3e014764bded105eU, 0xbc42bee2bd73125cU, 0x3db925c739fa87e3U, 0xbe07449f3ceeebbaU,
  0xbd812ac3bd7a02a6U, 0x3d38ac1fbd78806aU, 0x3d7d30383dcf5b49U, 0xbcf89bb13d1785acU,
  0xbd66c7a5be13309bU, 0x3c038a603ddb4c6dU, 0x3ca0740bbdf2b7b9U, 0x3d12e7cfbe34bf34U,
  0x3d113325bde69beeU, 0x3d9491233d8897aaU, 0xbd349860bdbd2f94U, 0x3d057b033dc25b53U,
  0x3c40b70ebdc89287U, 0x3d0d9f54bcb58a6bU, 0xbde08c7e3ba83d06U, 0xbc7019aa3e0c78bfU,
  0x3d83ec12bcabc7cfU, 0xbd20835dbd7a8affU, 0x3d288d333e00fbc0U, 0xbd92178c3dff216dU,
  0x3d8a618d3ce6e15bU, 0x3baa1b01bcac9213U, 0x3d913ea43d9519eeU, 0xbcff49aa3dadd762U,
  0xbe1b9a873d04e198U, 0xbbff5e893dfa8796U, 0x3d5e42383cc5f465U, 0xbba7da0c3c0b7426U,
  0x3d4b1f223c27a555U, 0x3d6de869bd64ef90U, 0x3de25dd6bd9df3e5U, 0xbd3b14b8be5b6cf9U,
  0x3d94466b3db76f51U, 0x3d51682cbd362973U, 0x3c6458a53c9d67f3U, 0x3d26c9043bb8636eU,
  0xbe619655ba85887eU, 0x3dada5233d211df4U, 0xbdb1ea18bd9fed90U, 0x3bfe789cbd4dc002U,
  0x3dccccdb3d090f5fU, 0xbc6950b4bd9290deU, 0x3d9693a23cba90f2U, 0xbdbde5783dda9927U,
  0x3d8e7b1bbc689e43U, 0x3d11f3263d2b2da5U, 0x3d08d2403d977aebU, 0xbd91f0aa3e73d75aU,
  0xbddd01fbbbbae831U, 0xbd2b14013cc54565U, 0xbcf087323e0bf389U, 0x3db09da23d634fe7U,
  0x3bae3aa1bc18229dU, 0x3d670e39be08bda4U, 0x3d3965fd3dec815bU, 0xbdc7df323e1cf3a0U,
  0x3d9b801b3d91a273U, 0xbc00beb6bd9cea34U, 0x3db797313d24858aU, 0xbe0572c13e2f5153U,
  0xbd2f51d2bcbbc2c0U, 0x3bd021533e196b36U, 0xbb35208c3d2132abU, 0x3dc46c263e0cc3edU,
  0xbe078e97bda4935bU, 0x3d3b6e113d472f14U, 0xbcface78be083077U, 0x3dc0088ebd8e9cfdU,
  0x3d0e9f733cebb5e8U, 0x3d9113f2bd00e26dU, 0xbd9a70393dd0090eU, 0xbde674e03e1390e0U,
  0x3d6ee32e3dce0609U, 0x3ced962ebd2b7874U, 0x3d48600dbc915087U, 0xbdcad5623dccfb16U,
  0x3b331a1e3dd9b5a8U, 0xbd52d816bc28e645U, 0x3d97ef28bd405813U, 0xbd7f96983d87e9dbU,
  0xbde608cebb2595a1U, 0x3dacedaa3cd42506U, 0xbdb127f3be23d28bU, 0x3df631d2bd21b9d7U,
  0xbe16d487be1d84e8U, 0x3dba59fcbdcac242U, 0xbdf697ffbdb830b6U, 0x3d79c20b3de69622U,
  0x3dc720a13d19b6fcU, 0x3aeb47fdbe10409dU, 0x3ad44168bc82c157U, 0xbe43d43b3d334298U,
  0x3d811c37bd7220a2U, 0xbcf9921c3d993469U, 0x3d6f5d453cb36563U, 0xbcaf52b83e36ccd9U,
  0xbcd41ac6bdc3bf85U, 0xbd5fe9dc3dec3412U, 0x3d8e8bcf3c74b776U, 0x3d8ae6b33c0f3307U,
  0xbdcd2cf13d2c616fU, 0x3daac0d93de19975U, 0x3caa549abdf9cd68U, 0x3d4819c0bd071007U,
  0xbd9ee173bc74a646U, 0x3d5d96173d0a9987U, 0xbd1ad1debc4ccea8U, 0x3d4998c83e2d9beaU,
  0x3df213c4bc174409U, 0xbd2bdfe9bba398afU, 0x3da6ccf23cffdeb0U, 0xbcf1dc5f3dea2a01U,
  0x3d2a5ac63ce30a4cU, 0xbd9d680d3d4de32fU, 0xbcdf72c33ce8b7d6U, 0xbd7554d03dabbafcU,
  0xbd25d533bdd2dc69U, 0x3cc160a23bc2fceaU, 0xbde110ae3da7cb99U, 0xbd8722993d47af84U,
  0xbc79c501bc97b008U, 0x3daedabf3d8589b8U, 0xbc44862fbd6cf3fdU, 0xbbeea7f83e15f2c4U,
  0xbcbc91e9bd514b9dU, 0x3d0ead40bcaca50eU, 0x3c81d8283d1e72f5U, 0xbdfeca5f3e4cf2d0U,
  0x3d222f4f3ceb77a6U, 0x3d18f8c1bd9f48d3U, 0x3d9fd0833c0ac79eU, 0xbdf9e522bd4baea1U,
  0xbc5e1d30bc11d4ddU, 0x3c3d23e63dcb94d9U, 0x3df959173c290b9dU, 0xbd1282053dddd96fU,
  0xbdb980afbc2254d8U, 0x3d2f666a3d7915ebU, 0xbd84cfe8bd15f1ccU, 0xb99ceda8bd8f3b7bU,
  0xbd39f20ebe2c6435U, 0xbc031b09bde91e54U, 0xbd025ac3bdcfdbadU, 0xbd9491c8bc91329aU,
  0xbd4d8ce2bd0355ebU, 0xbd418ccd3d67fd63U, 0xbbe632ed3dba5917U, 0xbc3634873e041eabU,
  0xbd1ec1ee3d81d498U, 0xbd9174ccbcdacdb6U, 0x3dc81bfa3d6ae1d2U, 0xbdefd62d3e1c822fU,
  0x3da56b033dccacdfU, 0x3bbe16453c7e8b82U, 0xbcdfed2e3d44c038U, 0xbc9df7653e583094U,
  0xbcfd9a6abded0e8bU, 0x3bac1a65bbc424bbU, 0x3cfe6a8dbd182874U, 0x3dc7cf393e4453f6U,
  0x3cbe86eb3cd1b412U, 0x3cb0b873bd186390U, 0xbcbe7c773dacca6aU, 0xbdcc61893e4d6fd9U,
  0xbd90a5b23c009efdU, 0xbb90a6c2bc9532ecU, 0x3c8839823d595865U, 0xbe15b90bbc809249U,
  0xbc7ae49cbd892b23U, 0x3cd24a653cdfc5e2U, 0x3d86d324bd8e476aU, 0xbd34f5cf3e352c0bU,
  0x3c6698dfbdde8f2eU, 0x3d87a7ce3e0b0f72U, 0xbb1d353dbd55e4daU, 0xbd246a333cb734bcU,
  0xbb4a0dc4bd88724bU, 0x3c9cc6f8bcc5d6e4U, 0xbd4ce8f0bdd2fcd7U, 0x3c76d1b7bbbfe2e7U,
  0xbd8ded11bdf239efU, 0x3c2de7e5bdb6de04U, 0x3ccc2fb13cdae9fbU, 0x3e1a3709bd9744cfU,
  0xbe3ab046bdf82783U, 0x3b7cb004bd2d45b7U, 0x3bc81609be1e6fd1U, 0xbe0711fa3cde4057U,
  0xbd3fb05fbdbeb09eU, 0x3d9de2d23d32e5e5U, 0x3e0848cd3b680925U, 0xbe8c86d4bc54dd6eU,
  0x3dd84329bb148afeU, 0xbd0932e63dcb80e6U, 0x3d6bc903bbb12d92U, 0xbd928ea4bcc95a65U,
  0xbe2437f1bdfb3a4cU, 0x3e0d55133e23c42cU, 0xbcfe854bbe471613U, 0x3e4894a6bda34c87U,
  0x3c3eb532be4e0a20U, 0x3dd463c2be01d38eU, 0xbe01e96039e662dbU, 0xbc84817b3d7aea74U,
  0x3e2c68d1bd4c6147U, 0xbd3b564bbe1c32dbU, 0xbc2faeab3e091575U, 0xbe38d4f43e9d31ebU,
  0x3e334ec13df8a8a7U, 0xbdff1a223d828589U, 0x3cad4af93e14b3a2U, 0xbdd576943ddad8e4U,
  0xbd846180bcab3f34U, 0xbd66f9973c76e778U, 0x3c2c29a9bd4bca04U, 0x3e0b89873d0c6468U,
  0xbe79cafabd37636dU, 0x3e27858d3c063a05U, 0xbdd95081bdb098f0U, 0xbc02d8d13b4d8678U,
  0x3d72441fbd7fa455U, 0xbd1a5b0fbda4b305U, 0xbcad40313c71584bU, 0xbdd9132e3e36452eU,
  0xbd59f9e23d86502aU, 0xba3e5e1ebc87a9ceU, 0x3da03e093dd1b533U, 0xbd8608653dab540eU,
  0xbe08d9363b6a8d09U, 0xbb5ddd76bbd0d29dU, 0x3dd2c04dbd9d03c2U, 0x3dacb89d3da6a68fU,
  0xbbc2be31be0c1148U, 0xbcf6363ebcc74fdfU, 0x3cdd50eabe169ecaU, 0xbdbf9d7b3c3a8c80U,
  0xbe0a8e00bdec6cb8U, 0x3d9347aebcefdf49U, 0x3d25eb113b89c97eU, 0xbdaf56c63c922971U,
  0xbd5b5b9abd83a39cU, 0x3d9eb529bc644155U, 0xbc4bf0e63e0037f8U, 0x3d56beb93d834401U,
  0xbd6c76d33d10dba6U, 0xbb4ddbb53c80c019U, 0xbc9f8a073c2e1119U, 0x3d62eefe3ce36180U,
  0xbcd5e5cb3c579b57U, 0xbd89567cbe14a6e4U, 0xbbabceacbcef368fU, 0xbd9400143e05a6b5U,
  0x3ca8c3b33ce8e50cU, 0xbdd37b073d6f576fU, 0x3c8c80623dd2b045U, 0xbdbab823bbcbdda3U,
  0xbd5c80f0bcae4289U, 0xbd92abc5bccd4109U, 0x3c530b373d5869b9U, 0xbc9603c3bd75a9a8U,
  0x3c32bc7fbd4d7bc9U, 0x3d8d3a8cbd6aeb10U, 0xbcf7e3c0bd0e0165U, 0x3d8c41e83cf50249U,
  0xbc8d88dfbd8a387fU, 0xbd888707bc9580fdU, 0xbb1cce2dbd89d870U, 0xbdb3b1123d45b7e8U,
  0x3de6bb35bbb023bcU, 0xbc4a5d0c3cacc774U, 0x3c0e303e3dc8b526U, 0xbc491a0fbda9e0e7U,
  0xbd0ffbc6bd9d2bc1U, 0xbb0d226b3cef9fb3U, 0xbdd7b5abbd76244cU, 0x3d00b6c63da6c8c4U,
  0xbe2c6d2dbe2b4f6dU, 0x3d8210e0be00d981U, 0xbd9b496ebdfcb363U, 0xbe0120a33e23877dU,
  0x3d10faefbe1b150eU, 0xbddf7214bd91dc50U, 0x3dbada913ce7c3baU, 0xbe7100ad3ded02c5U,
  0x3d022908bb99d9beU, 0xbcb1c3e63b4b5892U, 0x3dd2d9a53d67b0bcU, 0xbdd553f1bc1d0c7bU,
  0xbe296f73bcfb0cfdU, 0x3d740a9a3e15c72bU, 0xbcdfa987bda9c1cdU, 0x3d52f8443d1aabc9U,
  0xbdea113abe1e5505U, 0x3de01234bd8a138bU, 0xbbbfafbdbde274abU, 0x3d78c6fc3d99cbb8U,
  0xbd866d933d2027e7U, 0xbdff0f15bb24a4f5U, 0x3d5b5123bcc7e5f5U, 0xbdd7635c3d9297a2U,
  0x3dc6e63a3d54270fU, 0xbdfc42ba3cdb5286U, 0x3e36d3b53e108633U, 0xbd26ed3a3d17a513U,
  0xbe0b13623e0e2f0cU, 0x3dc933043dd6a9b9U, 0x3d0ebf8a3d745392U, 0x3ddec93fbad9e038U,
  0xbdff5fadbdcb4f23U, 0x3e074f033c813cf5U, 0xbd7a9df4bdbba853U, 0x3e30f5063dbf66caU,
  0xbcb8b85abde9fa6eU, 0x3d87656abe0af7d3U, 0xbdc05d9d3d231efbU, 0xbdf1d6a23b6ede8eU,
  0x3ce6f8ed3d9b9d34U, 0xbdc8dedf3d2fda0dU, 0x3dd47de93e0aa727U, 0xbdcd7ae63dfd9de7U,
  0x3a919e863e0bb69aU, 0xbd485ea9bc4ff800U, 0xbb95cf553df8a99dU, 0x3ddf01e33e05272fU,
  0xbcce5ad13c0f2ad7U, 0xbc6968253d5ff7e6U, 0xbdcbc82abd889ac4U, 0x3dcaac2f3e18c470U,
  0x3cc4e0243d2cfe1fU, 0x3d391d733d2e4b87U, 0x3dbfd19a3da9d8a3U, 0x3ce86d043e2cf198U,
  0x3b4d022abc647927U, 0xbdbd158f3d177087U, 0xbc65fa9b3d50ec0fU, 0xbce72c0dbce6500dU,
  0x3d5fde733e16b841U, 0xbca1ac44bd218cc0U, 0xbdca50e2bc2934c6U, 0x3c56c6c33cd27eafU,
  0xbe540f62be429ec0U, 0x3cd970d1bd1c2136U, 0xbe0f9593bae955b3U, 0x3c22e7b43dd17904U,
  0x3d986984be0c3df9U, 0xbc726c37bde4278aU, 0x3c7be38ebdda2b6bU, 0xbd6c4b2e3c7d71edU,
  0x3b8ee958bccb388bU, 0xbd583a4e3db56ff3U, 0xbc863f043c8895ddU, 0x3d611325bd5304cdU,
  0xbd4e16683d21417eU, 0x3cd913ba3daf808fU, 0x3c4a1ec13d086a00U, 0x3de146843d562582U,
  0xbbabdc263c2222b2U, 0x3d6894c1bbffa277U, 0xbd7192b83dcb50e5U, 0xbc9d079e3c621edeU,
  0x3d0673833b80ff5eU, 0xbc8bffb93bddd991U, 0xba425e9a3ca91e01U, 0x3d3cede83dab6af1U,
  0x3dacfb3b3de163a7U, 0xbd477d323cca4137U, 0xbd88ac5f3dadbb04U, 0x3c452ab43e2e4abcU,
  0xbdc1b1c2bdcf4bcdU, 0xbb6982eabe27e42bU, 0xbdeb1abebd1a20f9U, 0x3d58b6ea3e1696c7U,
  0x3dd0e15fbc4ae699U, 0xbdb0d86cbcfce3a3U, 0x3c6461c63da8468aU, 0xbd8cc0353e3d529bU,
  0x3dc8777f3cd31972U, 0xbdcd179b3dc2f084U, 0x3d9c4ab33d3119d4U, 0x3d88535c3d4eab30U,
  0xbc847f4e3d210e61U, 0x3d6e78113d26159eU, 0xbd95dd73bdd15a65U, 0x3dc46fc2bdc148f9U,
  0xbd1cbf7fbd9b0d7eU, 0xbc82ddf7bb96bd54U, 0xbe2ad820be0d490fU, 0x3dac873e3d441f00U,
  0x3cb4891bbdb32e7dU, 0xbd79ce5ebca4eab2U, 0x3bd405e13c08b254U, 0xbe04ab9d3d750829U,
  0x3dbaa5f73de9f971U, 0xbcaa76aebd938332U, 0x3dfebb423e2630bcU, 0xbe11ed6d3daaf056U,
  0xbd92d070bb39f042U, 0x3c8891aa3dea5aefU, 0xbbde2079bd057b25U, 0x3cbb719cbc839e1bU,
  0xbe1f0eb9bd91243dU, 0x3db3f0bf3c9a4daeU, 0xbe080950be371b0aU, 0x3e03adf4be03d779U,
  0x3c3be09fbe2d7b22U, 0x3cc43859bdce9604U, 0xbda833f9bd972e10U, 0xbe28db1ebdeb77f7U,
  0x3d6147283dc6e082U, 0xbe11c803bd349bf2U, 0x3ddc92c33ddceb9dU, 0xbd9fbad13d416357U,
  0xbe244f8dbc7bd583U, 0xbcb53a3e3d13d075U, 0xbdaf567e3d1e311dU, 0x3e11cf9abd1d780eU,
  0xbd96eb19be2a9cdeU, 0xbd2ddb5d3c9e78ceU, 0xbe101508be18b205U, 0x3cdf604f3cc4629eU,
  0x3d7e229b3d8076cfU, 0xbd006dc1bd9b5308U, 0xbc92f0f23d9b0c1dU, 0xbdede5173e167ceeU,
  0x3ca785583d49528aU, 0x3c76f2a1bd8564baU, 0x3e0cbaa13dacc6a1U, 0xbd5527ba3e044313U,
  0xbe12acc73dbcf810U, 0xbda14cfb3dd3719cU, 0x3cad9525bc498272U, 0x3d678e733da975a2U,
  0xbd96baa1bcad1d50U, 0x3d8de99dbd265f83U, 0xbb4b0c20bca401eeU, 0xbd083bcb3d5be751U,
  0x3d819c2c3d06cd4bU, 0xbdb7f6f5bdd921a2U, 0x3da961fd3e11e320U, 0xbe06ad663e7aed65U,
  0xbb9524813d526d99U, 0xbbc9f9763d2f79c3U, 0x3d1e0e3c3dcca89dU, 0xbd71c0743e3588a8U,
  0xbddf22d4bcdbf401U, 0x3dcb8cae3d050456U, 0xbd8014a9bd5d6aadU, 0x3d0a7ed9be0f7c2aU,
  0xbe0c47b2bbe29197U, 0x3bffbf7f3d863f9aU, 0xbdfc0147bd75475eU, 0x3e0ce811bd19ee18U,
  0x3ce273e03c62707eU, 0xbd95c796bde577c2U, 0x3c36e189bbafbf2eU, 0x3d1bc0bcbc65c5c1U,
  0x3e04ed1b3dcd8b40U, 0x3d0bd55abcf44f69U, 0x3c6e8f123da08565U, 0xbd113a303df3286bU,
  0xbe39f4b9bda06340U, 0x3db8d9af3cabc5ecU, 0xbd28db3ebdc1637fU, 0x3d8bedecbc8cac3aU,
  0xbd9a43193ba42d46U, 0x3bad768bbdb8d0e9U, 0xbc5eb0dbbd5557aaU, 0xbe075d613d4611d9U,
  0x3df62173bc4cad26U, 0xbc31073b3cdc9eacU, 0x3e3115b13d8c522aU, 0xbda8feff3df1ffe9U,
  0xbdfa63cc3da6997dU, 0x3cf518d93d8e7123U, 0xbd46d2fa3d3ce6a2U, 0x3e164a98bc94252eU,
  0xbe1753fcbde07d83U, 0x3d9a552bbd576685U, 0xbe01df44bda1fb2fU, 0x3e5e536ebd6d61d2U,
  0x3d4ab9dabe0764d8U, 0xbd39c586bd48b6d6U, 0xbd1591f13d597749U, 0xbd37c2683de16789U,
  0x3e2bcf933dcaca9aU, 0xbd0710e7bc9a5932U, 0x3e15a79d3e814d16U, 0xbe4c20113dd2ce5bU,
  0x3d1dbd673d6ef374U, 0xb99950a73d925576U, 0x3e1459c43cb1b213U, 0x3d7c59c5bc7b88ffU,
  0xbe81bfb6be1b4417U, 0x3dd37d093c6db097U, 0xbe4c3847be0307daU, 0x3e2e4514bda18cecU,
  0x3d8f493abd286ae0U, 0xbd1036f2bdfcd148U, 0xbdc79a683c060324U, 0xbdd650f23d402f14U,
  0x3c2a3e29bcb88872U, 0xbca5766d3b6e6224U, 0x3d9eb8fe3df52396U, 0xbd5888353e17d665U,
  0xbd6448dc3df49f6bU, 0x3ad0b0c93a766304U, 0x3d149a6c3d1d8c1fU, 0x3978553abcff0238U,
  0xbddcb670bd97588eU, 0xbd29db43bc474a4cU, 0xbdb506eb3d2b3be6U, 0x3b9b9f493cf31a45U,
  0xbd0b5d323bdcdcdeU, 0xbd0d8616bc196e0aU, 0xbda25726bd9e19e5U, 0xbdbe38263d52d98dU,
  0x3da95ddf3d578649U, 0xbd9aced83adcb3d2U, 0x3e0281363bb262ccU, 0xbe1a0b62bdee2458U,
  0xbd3d5408bc9bff61U, 0x3d83f0a23ddb6c48U, 0x3d8ecf8ebd896935U, 0x3e1709a53d0336a6U,
  0xbe5ca67dbde5f304U, 0x3d64bdb83da394f8U, 0xbdfca3a7bdadcd47U, 0x3d9db4d33c898911U,
  0x3e1945f5bbd55059U, 0x3d5fc2aebd6f5753U, 0x3d4918c9bb4e12faU, 0xbcc029873da90888U,
  0x3d22b4aa3da290feU, 0xbda5320abd2ab8baU, 0x3d42540c3df7e944U, 0xbd2324863d0ef837U,
  0xbc89277a3de99c16U, 0x3cbb69f83a2ad63aU, 0xbd290e003e12f75bU, 0x3d5d0dd5bd7dfc04U,
  0xbd3c3983bdcd1703U, 0x3da7803ebd41666bU, 0xbd84c646bd8f191eU, 0x3cb3ae9ebc8824c7U,
  0xbd2c2bc73da3ffe7U, 0xbd20548ebe41f4bbU, 0x3d4ff626bc5fa112U, 0xbdd2566e3dfb5393U,
  0x3dd6aecabb758aa9U, 0xbc8206393d9302a6U, 0xbcba661f3dd756b9U, 0xbc5a6d813d82132fU,
  0xbe127a1cbd2c3061U, 0x3d7cf30c3d6fac41U, 0xbdc7bad7bd07c3c1U, 0x3e014e8ebcc3811dU,
  0xbe0301d7bd91f312U, 0xbd3b136fbda19f97U, 0x3d5a49c5bdf13a36U, 0x3dd5de033d58cff8U,
  0xbe16158bbcd44cf1U, 0x3c0952353cbda1e6U, 0xbd26106c3d73ed01U, 0x3dab9d573e19c155U,
  0x3c66f403bcf40f38U, 0xbd3ba75dbdbc424dU, 0x3e01f2723e04c68cU, 0xbe12fe013e31b834U,
  0x3c98fa1e3d92c574U, 0x3c8d25983c9e801aU, 0x3d4aeb6ebd05eeffU, 0x3dbba472bd4c520bU,
  0xbe06dc73bde493fdU, 0x3da9c13e3a992af6U, 0xbcc58ca6bb90affaU, 0xbe100143bd6b535bU,
  0x3c89716dbdbe3584U, 0xbd22de643ddb1bc0U, 0x3bf4ff51bdc13dcfU, 0xbdc7be5e3d703f51U,
  0xbdea1aadbdb07717U, 0x3d8fc8343d1c4eecU, 0x3dd1c8643b846a43U, 0xbcd06e223d69f6a2U,
  0xbdf12670be438c47U, 0x3dfea1743dc5245dU, 0xbd069eecbce1f3e8U, 0xbd76f62a3d26e1c2U,
  0x3e0260ba3cbaeb22U, 0x3db05d35bd780ee3U, 0x3e009d893ddbccdaU, 0xbe4d545b3e25fb1cU,
  0xbd660e55be055310U, 0x3d367c1f3c5f43c9U, 0xbc8f0935bddac5bcU, 0xbe1c84c93e1d7ef1U,
  0x3d9dbb60bd2925ebU, 0x3dd43cdc3d759e0bU, 0xbb50acbc3d06af61U, 0x3bce46863d89946eU,
  0xbd81a30bbd22db71U, 0x3d4451463cb43b7dU, 0xbd92a55dbd01cdc1U, 0xbd2c3d473d2fb87bU,
  0xbdf97826be19b287U, 0x3c81cef53cbdc17eU, 0x3db11b09bd26284eU, 0xbe0ce8f43d498fa7U,
  0x3dc382b93c69661fU, 0xbd033d583dc8bb08U, 0xbd9e31013cf66940U, 0xbc67f6fb3dec5ef1U,
  0xbd986265bda2089eU, 0xbc011c79bd2b21b8U, 0xbd914a73bd542832U, 0x3ce787fabcb88b63U,
  0xbc6f0e6c3c165aa3U, 0xbdcd1ae9bd6f7c02U, 0x3d92289bbdd38056U, 0xbdf5b6953e3cbaafU,
  0xbc6ef6e0bde69165U, 0xbddd861fbc0e89ddU, 0x3bf54548bd2b6716U, 0xbda911ebbd023c0cU,
  0xbe0b4461bd9c60e6U, 0xbbdd6cb93de06294U, 0x3ce89913bce4f600U, 0x3dfd0fde3d3fddb0U,
  0xbe050761be03238cU, 0x3d1c3b55bc48a818U, 0xbc0c62bdbe227486U, 0xbcab55513db61875U,
  0x3e7d990abd8528f7U, 0x3db451dfbdc81591U, 0x3e25e8db3da056ceU, 0xbe09d4fe3e2b2eceU,
  0x3d1d105d3d2e50dcU, 0xbcf1173d3daac75dU, 0x3d2d5fc9bce924d6U, 0x3b53a6be3d48915bU,
  0xbe014bafbd9072e4U, 0x3ca12e703c92ad98U, 0x3c979d91bd66355eU, 0x3dc16ffe3e181a47U,
  0x3c5c53cebde131bfU, 0xbc66641c3df64019U, 0x3d81fb95bde2c3f6U, 0xbdf89de33da8914dU,
  0x3daecd69bca7b8a4U, 0x3bb3807abb556e45U, 0x3d1b6c013d1534c0U, 0x3dd9b1553e30ec91U,
  0xbdac41d3bd82548fU, 0x3d2d13f83dd2ed61U, 0xbd7fb5bdbdcd88d6U, 0x3ca163e6be32d4e8U,
  0xbc1f54f4bdf4619aU, 0xbcba12253da96c1dU, 0xbd8b39d9bdfc504cU, 0xbddb4f5fbc872b39U,
  0x3e186a6fbc83353bU, 0xbd06b95abd5a9ca7U, 0x3dd223333de4db28U, 0xbd11d9c03e29ec86U,
  0x3cd422413d99214dU, 0x3d5fd9563dca5fe0U, 0xb9a5cae7bdac19b0U, 0x3d856564bd4cf327U,
  0xbde05ab6bde5f82dU, 0x3dc84507bd07bb07U, 0xbe143554bde53e66U, 0x3dc468163d3fc82dU,
  0x3d186f23bc8de2adU, 0xbc80d7fd3c296b01U, 0x3d4d00e9bd2dbafdU, 0xbe18ad793e807b87U,
  0x3e3a17803c770d4cU, 0x3c915f363cfc70d4U, 0x3d9bff8a3d5a69a6U, 0x3b819d883e68d673U,
  0xbdaccdf2bd500800U, 0xbc8d0fcf3b79f35eU, 0x3d8de42cbd562d77U, 0x3e2d2c6a3ca90436U,
  0xbd9e0106bb341053U, 0x3db95db7bc206d9aU, 0x3d0f28523d45a50fU, 0xbe2a584b3ce6a656U,
  0x3e0d0fcc3cd4e811U, 0x3ca7a7063cc6b0b9U, 0x3e068cea3c960f1bU, 0xbe523e443d839a5fU,
  0xbd24ec6b3c1a4366U, 0xbc1e3c913c602d9aU, 0x3d0ec4c7bdb51bcdU, 0x3e1c0620be074187U,
  0x3a4a4555be05cc77U, 0x3c3bf385bd8338c7U, 0xbde84a33bd92c0c9U, 0x3b5423d2bd8f6566U,
  0x3de83e3d3c610badU, 0x3d406ed6bd3d34efU, 0xbcad286dbd8e8875U, 0xbe1297953d2bf71aU,
  0x3df78346bca7b093U, 0x3d420a7f3d77a2c1U, 0x3caacb853d4d1747U, 0xbd406a203dd8fd68U,
  0xbc4048babdf08d66U, 0xbd09c7823d22f9d1U, 0xbdc688943c8b25d0U, 0xbdbda1f13dd3995cU,
  0xbe4023c0be2f2d34U, 0xbc5a4395bd855155U, 0xbc70824e3b85c55aU, 0xbdca5d393d4ab64cU,
  0x3e1f5f9ebcb5e6e6U, 0xbdad0ec73cbbe899U, 0x3e46cd0bbd871cf6U, 0xbe4fbb303c52706fU,
  0xbc9d6ed5bdd9f020U, 0x3dc384533ddc9a04U, 0x3bd7d122bde06956U, 0x3dd6a273bb6a3b41U,
  0xbe840256be1dd02eU, 0x3d1a2ada3dbc58a0U, 0xbd5bed55be1439c2U, 0xbd281b313d488e20U,
  0x3dc3bc693daefaa0U, 0x3d8d68e03bba3e9aU, 0x3da5b690bd2111bbU, 0xbe71d8043d7a1d62U,
  0x3da630b2bd85f36fU, 0x3cddeaf7bc25783cU, 0xbca3d03e3dbd7b1fU, 0x3d95b90a3dac72a6U,
  0xbe9134f1be193cf5U, 0x3db210a4bd5e465dU, 0xbd9dded1bd722638U, 0xbcb728f9bd813d27U,
  0xbc52c150bd10358fU, 0xbcd639c93d135639U, 0x3e04c74fbcb979ceU, 0xbe2542293d0299ccU,
  0x3d164ccb3b599606U, 0x3d74ec963d227286U, 0x3e0a60833cfdb7acU, 0xbda945713d61ecf9U,
  0xbe419b07bde5cb3eU, 0xbb5c21a03dbdf5e7U, 0xbd9b09c8bdc329f8U, 0x39f042e7be147c7aU,
  0x3d447ba6be169c8dU, 0xbc6856fabd018889U, 0xbd99a440bd903badU, 0x3d8a21413e3a4e16U,
  0x3d470958be187db3U, 0xbc24fde63cb24f5bU, 0x3d1d85cf3b3a55dcU, 0x3d4a81993e3c3c7cU,
  0xbd2e120cbdc3b16bU, 0xbd3f33053d9d7f5eU, 0x3d857c55bd047aa1U, 0x3d46af873e2fe346U,
  0xbd16476fbe32d469U, 0x3d76ec67bd34336aU, 0x3d874ea43dd4043bU, 0x3cbf15713e334010U,
  0xbcbd28af3cfffcddU, 0xbcfc8621bdd0e917U, 0x3dbcd9333bc08948U, 0xbde61d333e59ee41U,
  0xbc7c03b2bd2f0873U, 0xbd07f7a03dba8b10U, 0x3d4d4de4bdbb88e6U, 0xbb9bc9a93d86173fU,
  0x3d124cfdbced2c5fU, 0xbc2a2f5bbc77cf39U, 0x3d5951963d68b6bdU, 0x3dcca18bbd5b681fU,
  0xbd87ff5cbdc295fcU, 0xbc4fcc543d747fabU, 0xbb2ccda0ba5d90a7U, 0xbdc8d0633d8c0966U,
  0x3dd371f0bcbe12b7U, 0x3dcf67953d50a3dcU, 0x3d9a98913dcdf94fU, 0x3d497ba33e3cfbbaU,
  0xbd40a3d2bd8bdef7U, 0x3c4013933df33278U, 0x3af3cac23dd6993dU, 0x3d0b7c353e3db3eeU,
  0xbd88a741bd214f7eU, 0x3dbd9c37bca48554U, 0xbdce8143bcaed4b5U, 0x3e01d5d53d0ff02eU,
  0x3df636febd57c5bfU, 0x3ddb7436bde4d8dfU, 0x3c31442f3de56735U, 0xbdcf883e3e791076U,
  0x3d54559b3d2cdb8aU, 0xbc0620cfbc1fcab7U, 0x3de34e553e22b39eU, 0xbe0756a53e4a1805U,
  0xbd89ce36bd9435b0U, 0x3c92af283dccc505U, 0xbcdcb6203c45d2a5U, 0xbbb3a3e53e1ec4d2U,
  0xbd547eb3bc08854bU, 0x3db8452e3bea0655U, 0x3d35ee97bd4692e1U, 0x3d101c273c8891a1U,
  0x3d4b1e37bcc66c17U, 0xbd2b6e643e1b13ccU, 0x3d8718813cfbc07fU, 0xbb8a700e3d1f790cU,
  0x3de6871c3b3e1207U, 0x3da164a8bc335caaU, 0xbc98b1853cad1bbdU, 0xbd8c3bad3e3bd658U,
  0x3b20cf9ebd5f7d19U, 0x3da3cb203d8a6043U, 0xbbda71a7bd855ec7U, 0xbcf293b23e5b7a50U,
  0x3d06269d3d33a5d5U, 0xbd8a34de3d395f99U, 0x3e0938393c169406U, 0xbe0295923d29fbb3U,
  0xbcdb08af3cf601fbU, 0x3ca0b8863d88125bU, 0x3df64797bd0b987eU, 0x3d9b9dfd3e35ab70U,
  0xbe537b72bdfbe5fdU, 0x3da17ded3d9e32f0U, 0xbd8f67583b5c9404U, 0xbcdc1f17bd4cb7e1U,
  0xbd73e60cbdd9ea8cU, 0x3d4e34853dba6af8U, 0x3e139184bc6ad14eU, 0xba439ea4bdcd6959U,
  0xbc3121f23c3a3eeaU, 0x3a5ec6043d38fd66U, 0x3d9a4d063a93d2b6U, 0xbe1abbfe3d4b855cU,
  0xbdafc06ebd85c120U, 0x3ce7aaef3e1a3c0bU, 0xbd37c5bfbd21b565U, 0xbd1ad09d3d46fc6cU,
  0xbe286af5bda4274eU, 0x3c0aebc1bb17b4aeU, 0x3d05bd6cbdb38525U, 0x3c8ddeab3d53d201U,
  0xbd8f8dedbde1fe1bU, 0x3da58553bc1f6e28U, 0x3daccdedbd336dabU, 0xbdf3df673d126c63U,
  0xbd1ac752bdad608aU, 0xbc8e73e63e58fb15U, 0x3af5f38b3b509577U, 0x3da036df3e9a964eU,
  0xbdb38ef7be0c8ae7U, 0x3d8c48253c59f59eU, 0xbb177bfc3b99711dU, 0x3dfd946b3e767988U,
  0x3d3d47f7bdfea0f0U, 0x3dbc2d5e3d813116U, 0x3dc6b8b4bcb939cdU, 0xbe1f68dd3e204b87U,
  0x3e4b2f6d3d9258eaU, 0x3d651a7a3d3703eeU, 0x3d47cee83d769636U, 0xbcd9f2d93e475bd1U,
  0xbda640a4bba59a5fU, 0x3ddfbaa93decbe81U, 0x3df7e8d53c0fdf09U, 0x3d08dff73d7c1ec7U,
  0xbd9cd29abd80bc52U, 0x3d70ef3bbd8b5f48U, 0x3dfb9a29bc873e3eU, 0xbdd67732bcc462b6U,
  0x3dc6f5e7bdb1db17U, 0x3db7f7f93df71642U, 0x3e2b94943d7c6428U, 0xbddbfa283e3db3a6U,
  0x3af3797fbd4c239aU, 0x3e1872893e154145U, 0xbc4c09cbbd861d91U, 0xbca4719d3d86db7cU,
  0xbe009264be82360aU, 0x3d32df91bcf5c527U, 0xbda14a30bab379b3U, 0xbe2097893e7aea19U,
  0xbcfc22c8bda248dcU, 0x3d4f81e5bcf7235eU, 0x3d589774bd3a43a6U, 0xbe07c0ed3dee3cb2U,
  0x3d8a6a12bddcdd12U, 0xbc062f093df016aeU, 0x3d9be51b3d312087U, 0xbd7184cc3de0b046U,
  0xbe1a9113bdde29a1U, 0x3cb2cbc13db50f89U, 0x3daf1b923c3b8e18U, 0xbdddd46f3d855fe3U,
  0xbdf1b64dbdbbce23U, 0x3c89448abc0d1659U, 0x3c4d54bbbbdb1355U, 0xbd92e0263daf5b37U,
  0xbc615d3bbcf91dd3U, 0x3d8749d63da55307U, 0x3e2e13c9bdfd797eU, 0xbdee08093d19816bU,
  0xbd287a9cbd9cd9ddU, 0x3c58a31a3db8a6f8U, 0x3d9c1f2bbdf3cf42U, 0xbd1362e63dd40282U,
  0xbdadcc7bbe85ee33U, 0x3d982fc33c978b4cU, 0xbd9f15ffbceb42e1U, 0xbb204ea53dd5a119U,
  0xbdad6e11be9559ddU, 0x3d90be8d3b5e7ac6U, 0xbd94218cbd1227beU, 0xbc288cdf3e290067U,
  0xbc9da776bdbbf331U, 0xbc237861bb932463U, 0x3d887b963dc99780U, 0xbdfef64d3e55bb65U,
  0x3dc3c402be10e23eU, 0x3c4430913c237af7U, 0xbdab6ea53e0339f8U, 0x3d4eb7bc3e034d20U,
  0xbe1916eebe2e52fbU, 0x3de4beadbd4c42c6U, 0xbd81d38cbd9afffaU, 0x3a37f29e3cc8c784U,
  0xbd78c3773d01e765U, 0x3d5f3276bd3f6bdbU, 0xbd2834b6bdcc6c8aU, 0x3d3f0b74bd799addU,
  0xbce3cc65bdc12b51U, 0x3d269873bcfa25b9U, 0x3d83f954bc145e3eU, 0xbc1482fcbda38ec8U,
  0x3d1a4a763d7016b7U, 0xbba08f98bd87d066U, 0xbd4cf6603d24b080U, 0x3da734a4bd764f1dU,
  0x3d845c2c3d6612dcU, 0x3c1b930e3cf2420bU, 0x3ca9bb46bd33dc2dU, 0x3c35e91b3da64480U,
  0x3e3114b33d37d176U, 0xbc11d8673a022c85U, 0xbd9066353dbdbcd4U, 0xbdbce151bd99b811U,
  0xbae2e4c63ce0fe5eU, 0x3c21340d3d2ee339U, 0xbd2d5d08bd09fa21U, 0x39d491a93d869d6fU,
  0x3c47b2a53c8ce8a9U, 0xbd95c018bcf7447eU, 0x3d09a0533dbe4a83U, 0xbe1dac20bb2c1c10U,
  0x3d642b1e3d14a5f5U, 0xbcdf4d7a3da1c865U, 0x3dac83d13d5b649aU, 0xbc8a81c9bc305deeU,
  0xbe2cef6b3d7213beU, 0x3db192a23ded8bddU, 0xbdafdc39bdb4aae5U, 0x3d4ed88ebdf0a731U,
  0xbe24833bbd0b7477U, 0x3c9c2daabd5085bfU, 0x3cf9a756bd8cb85eU, 0xbda638fcbe0624a8U,
  0x3db7fd743ca0072eU, 0x3c591bddbd42307eU, 0xbccdfbd7bc860ae1U, 0x3d1025883d10fd6dU,
  0x3ca95aa7bd00315cU, 0xbd7e67b7bc1689e1U, 0x3d8356493cae7f2fU, 0xbd28eca7be38ff30U,
  0xbda5a00b3dc134a5U, 0x3d9abd23bad476b8U, 0x3dee5134bd2dbde3U, 0x3cdc0636bdfe1cc7U,
  0x3c94a4c13ddd68a9U, 0xbd62a2e33d8c78deU, 0x3a7469923cdc0ed0U, 0x3ddcb13bbc9405fbU,
  0xbd87baf0bd176bc1U, 0x3c220c0b3d273a22U, 0xbd7507d3bd7fd4a8U, 0x3de9d5a5bda6cc99U,
  0x3ce5a6a03c258daaU, 0xbcc2789a3d780898U, 0x3d9bd194bd819272U, 0x3cdd62dd3cc7c795U,
  0x3e14112d3dd935f7U, 0x3d9d2a34bd112469U, 0x3d89a913bd1c0785U, 0xbdbf05e9baeb9c2fU,
  0xbcdb9b983d3d2230U, 0xbd34cf5abd0c31c3U, 0x3cecec273b8aae3bU, 0x3c759648bc99c3efU,
  0xbd85c3fdbc40b2c1U, 0xba29d017bcafa31eU, 0xbd7d80163d5c8e12U, 0xbd0a9a223c6a84ceU,
  0xbcf4aafb3ce0bfe9U, 0xbd042afd3d753581U, 0x3a297295bb5f2829U, 0xbbff0eeebdbcd81eU,
  0x3b3289393d064ed6U, 0x3d806995bd37af89U, 0xbcd892fe3def6cfdU, 0xbd200d8fbc22b41fU,
  0x3bd90c7ebc8acc13U, 0xbd8175b2bc2ea774U, 0xbc40c5993d7d85fdU, 0x3d303e1a3c7f2e91U,
  0xbdaa1b9abd9bd6b3U, 0xbd9a939cbcbf3a7cU, 0x3cc7a57abd6710f9U, 0xbced3fe1be5f8115U,
  0xbc94831e3cb038f1U, 0xbc27ef4abd89a897U, 0xbd72de68bc76faa6U, 0xbcf5d4843c9295eeU,
  0x3c98e8d93de4f189U, 0x3d3be6ddbc14406bU, 0x3d56f7ab3d0ffe49U, 0x3dc09154bd99a6bfU,
  0xbd88512c3d1fb8c3U, 0x3d29f0393cc165f8U, 0x3dc84bc23d5fd73aU, 0x3d0168243ba02c6fU,
  0xbd529e13bde35140U, 0x3da6fe183d7e3854U, 0x3cea426bbd06f4abU, 0x3d4e8231bde93ebeU,
  0xbc6eba063d374942U, 0x3c37c17e3d520ad4U, 0x3cda3e93bb6f39a4U, 0xbc8835afbda22e75U,
  0x3df3bbb03dc6690aU, 0xbd1a729abcb725f3U, 0x3d6617083d8ce908U, 0xbd15dee23c5224cfU,
  0x3b8ca7e53de90c77U, 0x3ce6dae03ded41f4U, 0xbd8551583ddd2cd4U, 0xbd829dc53cb62acfU,
  0xbda8ef6b3de6ceb7U, 0x3da5b6523d83974cU, 0x3c695d02bd6b4075U, 0x3bfe5494be095084U,
  0xbcc9123a3dbbca89U, 0xbce10736ba557abcU, 0xbd4cc119bd0e93abU, 0x3da65514be94074cU,
  0x3d3b4f97bd8fce99U, 0x3d5ff667bbb3062fU, 0xbbc61d3f3c577150U, 0x3c2db276be86029dU,
  0xb9c88ecd3d62d5afU, 0x3cd407253c88604cU, 0x3bce706c3c445a15U, 0x3e008c0bbd8fc455U,
  0xbd251c3d3d21b6b8U, 0x3d610cfe3d9530fdU, 0xbdabe0643d539c58U, 0x3dac630abbf9a686U,
  0x3dc27bd93cc84501U, 0x3b475e4dbcde8109U, 0xbc579c9d3dff026dU, 0xbae4d543bcbbb909U,
  0xbd0318e33e0749d0U, 0x3d7a70003c19335bU, 0xbd1a85f7bdaa76f9U, 0x3cb0634a3bb5ed02U,
  0xbdf896e2bde0045aU, 0xbc785306b762be80U, 0x3cc7957e3cfef8d7U, 0x3c9ccfc4bd5dd981U,
  0x3c34cae53bd885d2U, 0x3db608b83d58cf9cU, 0x3dc121f43db857a9U, 0xbd6fad17bc642cfaU,
  0xbc922a6e3df07c21U, 0x3dc15f77bd4b0db7U, 0xbd406b093ddfd960U, 0x3d9c9fa7bd89cb54U,
  0x3d1e00253d067717U, 0x3ca80d913d4fd037U, 0xbd3d7a3f3e123718U, 0x3da4c9ed3bf36150U,
  0x3d9394383d64a00aU, 0xbd936aacbd496580U, 0x3d922fc33dc221dbU, 0xbc30c2123d7c70d8U,
  0x3dddabc13c9d25e0U, 0x3d276febbd9da47dU, 0xbd46fc963d21c49aU, 0x3decb329bce5c23fU,
  0x3d523fff3d0388a4U, 0x3d85635b3d983c2fU, 0xbde18744bd493e24U, 0x3d87d41abcc552a4U,
  0xbd73a4203cbc12eaU, 0xbd41d33c3bbc6972U, 0xbd84a1773daf100aU, 0xbc6e7ff33cb8c57eU,
  0x3cf0dedb3d42feebU, 0xbd3168a7bd83f50eU, 0x3d2ec9373db3099bU, 0x3c9284423e48a0f3U,
  0xbdc8e9093d2465caU, 0xbc8a40cb3d808da6U, 0xbd7b6264bdd3436dU, 0x3d3b96613ca3556cU,
  0xbcf89a773d8479f3U, 0xbd3a1069bda3c113U, 0xbd36d8fd3d077d8bU, 0xbd7d7f7d3db043f0U,
  0x3d8f47aa3d1fbf8eU, 0xbb997db23d2b3d53U, 0x3d8a40473df90f0cU, 0x3d8c40953d89f93fU,
  0x3cb5774f3d111ef7U, 0x3da1645e3cc1124aU, 0xbdc8264abc754b4fU, 0x3ca1a4a0bbf2cee0U,
  0x3c9014c4bd2aed9eU, 0x3c97aa00bd0cfe88U, 0xbbb668a8bd6de8d2U, 0x3d822926be2fab24U,
  0xbdb4e2b7bd699876U, 0xbdba1feb3c36059fU, 0xbd6c5d34bd58cd27U, 0x3d1f58073cff6682U,
  0x3954dc1cbd76e7a2U, 0xbd688e32bde56282U, 0x3d983150bd520d8bU, 0xbe08f453be293283U,
  0xbe07e3a7bc6c1599U, 0xbd54d2bc3d94f774U, 0x3d98e733bda91798U, 0xbcaadefdbe37a874U,
  0xbda9730d3d2541cdU, 0x3e0349f5bd32114bU, 0x3d4823bdbc2e9278U, 0x3d84f886bdbed719U,
  0xbc14b267bd090230U, 0xbbd8d5913d916baaU, 0xbdbcb2c1bdceefafU, 0xbd004fa4be3792a3U,
  0x3daeb203bd95c37cU, 0x3c4223b4bcb67158U, 0x3d73f39b3d331234U, 0x3d8b2004bde30db0U,
  0xbacc3aecbd844a8eU, 0x3cdf7df53d7c9695U, 0xbd7f87af3d1976afU, 0xbc9595333d1a15c3U,
  0x3e0bf8533d858fa8U, 0xbd8d0d673d992d38U, 0x3da4a0243e050c6aU, 0xbe33a7d93d98898aU,
  0x3d8414453d7f0e79U, 0x3d1e6a3e3db63fdfU, 0xbc84fc2abb863285U, 0x3b1e273abd974800U,
  0x3c4976903d8b4855U, 0x3cc20879bd525ca9U, 0x3d34af77bd3ba5b9U, 0x3c4633c4bd37fc9fU,
  0x3c7f7a0c3e0ab05bU, 0x3da3374b3ca3607aU, 0x3d1ff67cbd6702d6U, 0x3d5b3554bd770194U,
  0xbd6f6aa83d65e87eU, 0xbd233e98bd035317U, 0xbd7a9dd6b97625efU, 0xbd750714bd4b586eU,
  0x3d23177d3d392926U, 0x3ca9f3183d5deb1fU, 0xbcd9b45d3dc0cc9eU, 0x3d1ff833bd036a44U,
  0x3d215c513dd73a83U, 0x3dab701fbd312c93U, 0xbdc614e0bd815e8dU, 0x3c2150d8bc8095a5U,
  0xbdc00b50bd06573aU, 0x3d0ff665bbd45f75U, 0xbcce8c15bdd637e4U, 0xbdbcae51be42711dU,
  0x3dffa52bbb989d98U, 0xbb81b9ee3c23157cU, 0x3ba8ccc93d543eefU, 0x3d5484ffbdde111aU,
  0xbd66b75ebc97b52fU, 0xbddb8d713be4d891U, 0x3d3ff4d9bcb65f2cU, 0xbd5b71afbdab5b06U,
  0x3e32e1c83d6623f5U, 0xbd8cb03a3d48d961U, 0xbd1f84833c8b0a9eU, 0xbd423736bc1ad6f1U,
  0x3d993be43d52b15bU, 0xbd7b0b44bd5dd1d4U, 0x3c14fefdbd0e252fU, 0x3dd61c833bfe1b81U,
  0xbc88f664bda14007U, 0x3d612be03cdb5154U, 0xbd9a6c30be06fda1U, 0x3d923ad5bdd56322U,
  0x3de308b2bc2f869aU, 0xbd231acdbd861515U, 0xbd7d369ebd9c3c16U, 0xbd380d8a3cfed7dfU,
  0x3c6b9e773dd8cd29U, 0xbd633f883d5c70d7U, 0xbd1bc4f4bdc0a1b9U, 0x3c860b0abd996afaU,
  0x3d6887d53dbfb3e5U, 0xbc5fb4dfbd442c57U, 0x3d1a73543d40f2dbU, 0x3c7171293c741b82U,
  0x3dd8afcfbda5389eU, 0xbd8ecd9a3ac82c14U, 0xbddd52fabd095d37U, 0xbda8dabcbd9da50aU,
  0xbc6d4acb3cfebeabU, 0xbc99c495be07cbeeU, 0xbba931b2bcc52dc8U, 0xbd44d6cc3af53fe4U,
  0x3d4daa763dd16579U, 0x3c509a883ddbfdc1U, 0x3dc573bd3b179615U, 0x3d8e29213a3dd8feU,
  0xbdb99cd4bda13728U, 0x3dcf6e0bbd10eadfU, 0xbc75edd03cd613dcU, 0x3d97dd3d3ce59ab0U,
  0xbe135210bdc8241eU, 0x3d1c2314bdbb20d4U, 0x3c049fb4bdfaeeccU, 0x3c90996d3d8098dbU,
  0x3e4115cb3dc05f16U, 0x3cb4b524bd13a417U, 0xbc8caa23bd5b479dU, 0xbcce8f7a3d0093c4U,
  0x3e0b02c73de3ccb6U, 0xbe01c579bd97b884U, 0xbc9d3401bc4da9c0U, 0xbdad2ecebd8dd301U,
  0xbc0d4abfbdc2770bU, 0xbd8f6c3cbc692753U, 0x3ce75639bceec592U, 0xbc6b88f5bda1aa41U,
  0x3c3fb8c6bdd70cfbU, 0xbd6cf6a33d48f9c9U, 0x3ce64127bdb9767bU, 0xbd0ff874be452bf5U,
  0x3d60bb003b6745c0U, 0x3d2b52fd3c0a6866U, 0x3cbf6a4ebd8407faU, 0xbce0393abd4c4d80U,
  0xbd9b8fbcbbe9312eU, 0x3de0a3bf3cc5f28cU, 0x3c2c330bbdc5b36dU, 0xbd222a4abdaacb73U,
  0xbca0c2c93bd192aaU, 0x3d3c0ac23d0b3fe1U, 0x3c9aa6e93d307424U, 0x3e32ffd3bd8a8474U,
