/**
  ******************************************************************************
  * @file    network_data_params.c
  * @author  AST Embedded Analytics Research Platform
  * @date    Wed Dec 13 20:22:25 2023
  * @brief   AI Tool Automatic Code Generator for Embedded NN computing
  ******************************************************************************
  * Copyright (c) 2023 STMicroelectronics.
  * All rights reserved.
  *
  * This software is licensed under terms that can be found in the LICENSE file
  * in the root directory of this software component.
  * If no LICENSE file comes with this software, it is provided AS-IS.
  ******************************************************************************
  */

#include "network_data_params.h"


/**  Activations Section  ****************************************************/
ai_handle g_network_activations_table[1 + 2] = {
  AI_HANDLE_PTR(AI_MAGIC_MARKER),
  AI_HANDLE_PTR(NULL),
  AI_HANDLE_PTR(AI_MAGIC_MARKER),
};




/**  Weights Section  ********************************************************/
AI_ALIGNED(32)
const ai_u64 s_network_weights_array_u64[24652] = {
  0x3e8540163def8399U, 0x3cab446f3f08d9b6U, 0xbdf0658fbe4538b4U, 0xbeb666cebed766fbU,
  0xbd739bacbda29583U, 0x3d69ec653cbce232U, 0xbd79d5a63e31a0ceU, 0xbed832643e37ba1dU,
  0x3e755fdd3e66b3faU, 0x3e89e24f3e48b062U, 0x3e832d15be9f2a38U, 0x3eb0ebc1be04f740U,
  0x3bfbf6ff3e706d60U, 0x3e7ee3113f019dcdU, 0xbeaceab43d730d8fU, 0x3ef157debe802186U,
  0x3e2f9972be1c277aU, 0xbee6e269be83bdc1U, 0xbeb8aa7f3e538904U, 0xbdf0eb0f3dd3a81eU,
  0xbe92e8e1bd9816d0U, 0x3d6182fa3eb7eb90U, 0xbc7b297fbe395183U, 0x3db489803d9aa8a5U,
  0xbdb83e71be133219U, 0xbe6ef2f8bc6334c0U, 0xbd4de1b1be3aebf0U, 0x3e9643e2bec99346U,
  0x3d5ebffcbebedcc0U, 0xbe74dd21be5cd75eU, 0x3e9a06733e5e7e54U, 0xbe237730bedd0663U,
  0x3e8dec4abe7f15cdU, 0xbed4ebd3becc3e27U, 0x3e1a80883e09cdf5U, 0xbec76b983efaa9dcU,
  0xbe54fd19be87da52U, 0xbe3c842dbdc925a3U, 0x3e9164d1be414098U, 0x3c1e78323e9cbfc6U,
  0x3e50a05c3e2b9c52U, 0xbdf28e53be10b50aU, 0xbed27cf0be97e134U, 0xbdc9f715bd9a4dd3U,
  0xbe470dbf3e4bc8d8U, 0xbec51054be38f2d2U, 0x3d797f563e5d8f1aU, 0xbe2e7a0bbb9596c1U,
  0x3d53e1e63daaf8daU, 0xbe9de8efbe982b6cU, 0x3e7a56d6be14b2beU, 0xbf128ffcbea43beaU,
  0xbea4bd3fbe067c01U, 0x3e20c57f3e99a677U, 0xbd34fc86bcd3ed43U, 0xbe80dc183cb7623eU,
  0xbe98c8923eb26935U, 0xbe9efbd4be6d1922U, 0x3e806cc5bd3530f0U, 0xbe88a78dbec4f745U,
  0x3ccb22633edc3e58U, 0x3e3a520d3c0d598fU, 0x3c9d9d03bd807a61U, 0xbec0b5bebe96ca62U,
  0x3ded7ba13e1cb895U, 0x3eb303e83d9d9c77U, 0x3e7e9bf43e92946eU, 0x3dd23059beab31abU,
  0xbe0d2b053e97119cU, 0xbe9d52123ed5bee6U, 0x3e59ff0a3e0aabd4U, 0xbeb6ac7a3dde30d7U,
  0x3e57e956be3e170dU, 0xbeb21f3dbe151530U, 0x3e83297a3e09638bU, 0xbe4e87b2be8e9fb6U,
  0xbe89f3043d774e89U, 0x3e8df90bbc041265U, 0x3eac16c23e131ef5U, 0xbe3d8febbeaa1050U,
  0xbec5bdf1beadf19aU, 0x3ecac139bd1e1303U, 0xbcb487d63ea586f9U, 0xbda5b9013e91814aU,
  0x3ec23389bc98d291U, 0xbeb7780fbd290246U, 0x3e8c1330beb51a0fU, 0xbec879a83e2e27e5U,
  0x3ebfaaaabe86af8dU, 0x3e523ecdbe86b2bfU, 0x3e60c1e3bd3ef7f4U, 0xbd2d95113d0689e1U,
  0xbd50390fbdf66ad2U, 0xbe57bbeabdaea2efU, 0xbe103dba3e67f597U, 0xbd7c2a8c3ecb1f00U,
  0x3ccc2a09be428eeeU, 0xbe29eb9cbee00285U, 0x3ea791923eca27f4U, 0xbeeb67463e460f0eU,
  0x3d42384bbda91f64U, 0x3e55e226be647d4cU, 0xbdc4d5803db23b3eU, 0x3ed099dbbdf9cd95U,
  0x3dd057963d8b0c96U, 0x3eaa3befbd5fae94U, 0xbed745e33df4efadU, 0xbdb34e443c63816bU,
  0xbe7a0cf03e3942d6U, 0x3ed4bf9fbe76e736U, 0x3c8bfddf3e88117fU, 0xbea0f371be06a82cU,
  0x3ea4f8e7be16d072U, 0xbee596abbe1c2e36U, 0xbe92ffa3bea61c4dU, 0x3e18acc53df1e5acU,
  0xbed82a9d3e0a55cfU, 0x3e3306813e8b3a56U, 0x3e828c253e9240f0U, 0x3e8b91bebe54da92U,
  0xbdd359d6be7b6233U, 0x3ea83f75be162e54U, 0xbe74ef4e3dbedb0fU, 0xbcdacc213eb851fbU,
  0x3e7aac8ebe85a347U, 0xbe8e83963ec9ee7eU, 0x3e63409d3ca27e3eU, 0x3ec309c9bedfdc33U,
  0x3d8253053d27835aU, 0xbeb4a9003ecb8796U, 0xbcb1b62dbe3c6ce4U, 0xbebc94cb3e0ee811U,
  0x3e8f06953f088562U, 0xbd74e6d93ec74047U, 0xbe9d81e2bd7fba73U, 0xbe9ee494be2a4a51U,
  0xbed5444a3c23732aU, 0xbef6f81bbe74ded7U, 0x3e6ed67d3eb20ef5U, 0xbe980e25be8cdb71U,
  0xbdfc97163e9bccecU, 0xbea43c463e9a57f7U, 0x3e5bd48ebd2804e7U, 0x3e5fe31a3d22ef6bU,
  0xbeb4eca43e3980b6U, 0xbecd280abec33d91U, 0x3e9ec1af3ec4887eU, 0xbed4db4cbeecc4f4U,
  0x3e84a8f23e6114aaU, 0xbda1850cbf1be4b2U, 0x3e43617b3e91dcb4U, 0xbd65d46abe01bd15U,
  0xbef028523e0349b0U, 0xbe8742d9bdb8c466U, 0x3e6f574f3e354359U, 0x3edf59a73e62142bU,
  0xbf0442ab3df329c1U, 0xbecd31373e678e7eU, 0xbcd55da53c9be510U, 0xbe74c6e63db4e9b3U,
  0x3e7c11bb3e31c5e3U, 0x3e0f239bbed97310U, 0x3d35d358befccd0dU, 0x3ec4daac3d8cd002U,
  0xbd829341bef5ab23U, 0x3dc4fec53dc8b1dbU, 0xbe1e2d2abd6c6211U, 0xbea72d9b3e17be2aU,
  0xbe80367fbe53acf1U, 0xbe589f0d3d945f0fU, 0xbc797d0e3e093f72U, 0x3e776b803d72161eU,
  0x3ce2ea29be80e750U, 0x3ead48643e722124U, 0xbe19da21bd4c4398U, 0xbd2251a1be35b5f4U,
  0x3ebadd56be2a70afU, 0x3eb3620abdcdc582U, 0xbdd2aa40be81e67aU, 0x3e9380ec3eaebe09U,
  0x3e9cae413e5533deU, 0x3e70c50fbece48cdU, 0xbeb2257a3d8485bdU, 0x3e4d1fc1bd22a443U,
  0xbd5d5797be1ac31bU, 0x3eb2bd303e1527b2U, 0xbc8f341cbe883e9bU, 0xbdd6cd933ece063bU,
  0xbf1842513ea8bb73U, 0x3e6507b33e4baea5U, 0xbe949bf6be0d2a33U, 0x3d8668a23e9eac31U,
  0xbec444b7be9609b1U, 0x3df04f0fbd9c8b6cU, 0x3e461f8dbd5d6c5cU, 0x3df0ed55bc4f9928U,
  0xbeadbdcd3d2474c6U, 0x3e4b3cd0be25b52cU, 0xbe8ad0c8be04e84dU, 0xbd8ddc4ebebebc1fU,
  0xbe3f10213e8b4654U, 0xbd49dbf7be6815d1U, 0x3e99b5de3b901fccU, 0x3e18bec1be574096U,
  0xbea0c5b23dae1d7dU, 0x3d6c4b373e2c83deU, 0xbe925f8bbe8cf76bU, 0x3dcc459c3ea81760U,
  0xbf03de8f3dbd45f4U, 0xbe805f773e0ed5a2U, 0x3e90df86bdfe9db9U, 0xbd7ddcfa3dc99968U,
  0xbdf7e075bed0fb4bU, 0x3da12062be97a206U, 0x3ecbdba83e147243U, 0x3ea82efbbed6aaf6U,
  0x3cb91337be0fccf5U, 0x3e8cfdb93ec2abc0U, 0xbe2745193ea2f145U, 0x3e6ecfc8be93bdc4U,
  0x3d3c384e3e28f8c0U, 0x3ec3f3ddbe046f65U, 0xbe902ac0be6d8284U, 0x3e329e5e3e295651U,
  0x3c1b4cc4bc79579fU, 0x3cbc45fbbd815155U, 0xbd0215123c9a3f4cU, 0xbdad933c3d887981U,
  0xbe8e82e8be74a926U, 0x3e834ba73ef4189aU, 0xbe692badbe1320efU, 0x3e829a233ebdf95dU,
  0x3f0d2f3abea1a66cU, 0xbe77b17c3e4b1ca3U, 0x3ea11795be4f6789U, 0xbd892456be95942fU,
  0xbda755963eea178aU, 0x3e49d9323cbc209cU, 0xbe357cfcbe7eed93U, 0x3f0ad1ac3eb4cba9U,
  0xbf0e310b3f03a0efU, 0x3df17250be2e07d5U, 0xbe3998d33f05ef96U, 0x3e687d38bcc6f302U,
  0xbe9323a73d8f7d3fU, 0x3ef923203e30de42U, 0xbe97748bbca85189U, 0xbeab642abea8a4e7U,
  0x3df8f3123b7ede80U, 0x3ecd3d3e3f31f1c6U, 0x3f1845bf3c578227U, 0xbe8bdd6eU,
  0x3d89415b3d3beb06U, 0x3d8d2d163dec14c4U, 0x3cc248f83d4dba39U, 0x3e03c7a63c133923U,
  0x3be2600a3d9586a2U, 0x3e684cab3e186dc8U, 0x3e06200500000000U, 0xbdc6f9b43e037806U,
  0x3ec2ea723e52db2fU, 0x3dd544203df3cea0U, 0x3e6526f03e8484bfU, 0xbc47e9c73eb0eecbU,
  0x3e723a413e4fb215U, 0xbe881566beab489dU, 0x3ead13703e315c40U, 0xbe301558ba4d6eaeU,
  0xbbbaa2bcbd2b6445U, 0xbf4525363dad701aU, 0xbddab23bbea1619dU, 0x3ebbee5fbe784c9eU,
  0xbbd9069dbde38fabU, 0x3e852f67be7236d2U, 0x3e1d4a64be783b72U, 0x3d0800c03daacec8U,
  0xbec1e98bbdbae2c6U, 0x3d52f53dbdac66c1U, 0xbe8f1ee13c376dccU, 0xbe29e7c83e874e10U,
  0x3e5e5d46be8bd62aU, 0x3e1af9e23dedb885U, 0xbe9e2d97bd9361c4U, 0x3e059d3abe687b31U,
  0xbea66057bddfc243U, 0x3ee19fb03e1b06a0U, 0x3ed8a7403e3f6101U, 0x3e2ed9243f224ec6U,
  0x3eb9fa563e8314b8U, 0x3c4cebdcbd2d27cfU, 0x3e04bc70be907bbfU, 0xbdc2e860be989d29U,
  0xbde3d470be9b2117U, 0x3ecea05bbcb57920U, 0xbda0427f3e9faa9dU, 0xbe1588fd3e3f0199U,
  0x3e99e474be3b0cc1U, 0xbe6f08d5bdd49881U, 0x3e0925cfbe75ee68U, 0xbd377a303e2d876fU,
  0xbd983d243e3931b3U, 0xbebed8aa3d4f2c82U, 0x3dbe808f3e1ff7c8U, 0x3e8f11d03df2c7b8U,
  0xbe5b6aa5be68c274U, 0xbb44a7f13ab0e862U, 0x3dce3e34bb661880U, 0x3e76bcb83d41e6bcU,
  0xbe2420803e0cbcb6U, 0x3dc7cca33d7bb5dcU, 0x3e4776a33c26f295U, 0x3e4493a73dd86d5eU,
  0x3e67277a3e46ca73U, 0x3dc6c9cb3c8e2b9bU, 0xbe3111a13e8d09ecU, 0x3e80862cbe907dd5U,
  0x3e3e1f113e85c500U, 0x3c9283373ee8ade1U, 0xbe85c2bc3c198769U, 0x3ec32362be401927U,
  0x3e260a3c3ea72badU, 0x3c343120bea7bb96U, 0x3e3baff53e2201e2U, 0x3d6fb2283e80380bU,
  0xbed4a1293ea01b29U, 0xbe9ac91dbec827e6U, 0xbe8b926ebde08e50U, 0x3f01b78fbd244c04U,
  0xbe55e416bef2de6fU, 0x3f0c6a31be8af58eU, 0xbdc68adfbd39565cU, 0x3e0ae3203e7c0fc9U,
  0x3e5037723e21aa24U, 0xbccaf5a53f129e52U, 0xbc8ee92cbd3c44aaU, 0x3dac6e92becbc39cU,
  0xbe6cc3663e2aa92fU, 0x3e013d67becd42beU, 0x3ed9b6993d27a880U, 0x3e1ebd563f19e696U,
  0xbe22aa903f0947cfU, 0xbd866c4fbea23eecU, 0xbe92ab9bbef810e7U, 0x3f161b4cbdb0af50U,
  0xbe207bfbbe3b90c4U, 0x3f32d0d63c66bec9U, 0x3e8edc3e3e532b2eU, 0xbe1faa573e348236U,
  0x3e0aa32cbd53500fU, 0x3e3ad6553c1670ceU, 0xbe5c86f9bdf58036U, 0xbe5fe4e33cad090dU,
  0x3e1f91c73e4c07ceU, 0x3e5373a43f04b82cU, 0xbde371dd3e71b890U, 0xbe330f60bb1e2d19U,
  0x3d4f5bf1bd80e62cU, 0xbec13dae3e4bd048U, 0xbe6fe03fbe99d3d8U, 0x3e1dc1d4bdd6bd34U,
  0xbe8e9734bdc7cb2bU, 0x3ee9e2e73e9d4278U, 0x3e6bf8efbe9168c9U, 0x3dedba583d88f83aU,
  0x3de7e930be1f0e35U, 0x3d9ba020be3a0a8dU, 0xbd24494c3eac7118U, 0xbeb16edbbdd48f24U,
  0xba58d59d3dd423a6U, 0xbe99d09c3f1f1cb7U, 0x3e52a2eabde315b8U, 0x3e0495c6be6d5f5bU,
  0x3eb8b0e63e55eb2cU, 0x3e2077273e8fb336U, 0x3f2b81ea3f202821U, 0xbe4ab0a93e552f8bU,
  0x3f20979a3eec7765U, 0xbebbcbb83de96d1fU, 0x3ea180763dc05aa4U, 0x3e21e622be1f6f84U,
  0x3e7b5b6d3e23b995U, 0x3e0e572c3d4624fcU, 0xbda8dc77bedc7712U, 0x3f031ab9bdff89a7U,
  0xbe566f54be95f49fU, 0x3ead4a00be9e4c98U, 0x3e53baa43e0c1a10U, 0xbe2280093ebe454cU,
  0x3df34dea3e5aa8d3U, 0xbdff5dd6be37c870U, 0xbd95cded3da378aeU, 0x3e9fee06be9a8cf1U,
  0xbe371d533d4c71b0U, 0x3ea73a57bcbfdcbaU, 0x3da624983d8e2770U, 0x3e8c3f28be7a9ebeU,
  0x3e73d1c3be2e8e5fU, 0x3f23037a3e8624d5U, 0x3f21c5f53ecca8a2U, 0xbe8a32433e5af8c6U,
  0x3ee766e43e4dbc56U, 0xbe12114a3d6d9d84U, 0x3e2367b6be8eec2aU, 0xbe87069cbe0675daU,
  0xbe54c612bd487ecfU, 0x3e8b2dcebee993ccU, 0xbd731a0dbe53c034U, 0x3da50befbe54f674U,
  0x3dcd789bbdeb35b7U, 0x3cc706dcbdd49077U, 0x3e68c99bbe0feb44U, 0x3e1f69d8be6eacb2U,
  0x3e6f487bbebf9012U, 0x3ea704e73dbca83aU, 0x3eb90b113ea18b95U, 0xbe0c96cf3e597e7bU,
  0x3e7cdf45bd8afc3fU, 0xbccdf9a33e94e325U, 0x3e3888483deba174U, 0x3e06c3d2be8b1c83U,
  0x3daecb853cb26844U, 0x3ee9eac3bc011395U, 0x3d0fba623dc72cacU, 0xbd6e1b9b3d8917afU,
  0xbde580893e94a78eU, 0xbc1b716ebd44f748U, 0xbe650d0ebdbea178U, 0xbe09253f3e8140c0U,
  0x3e3dfa6cbd8ebe91U, 0x3e79ad70be16be3cU, 0x39a461f3bea30048U, 0x3e7bd0c2be8469ebU,
  0xbeb2c20fbe3aa932U, 0x3e2608a73c922d58U, 0x3e0e2ef5be8f6c38U, 0x3b182300be96d351U,
  0x3e694b4fbd4bdf5bU, 0x3efe29643e54b5feU, 0x3f0631273e5ad3daU, 0xbe632f473ea4dd10U,
  0x3dfddfa63ec3b5bdU, 0xbe30aaec3d024f36U, 0x3e209d693e9171b0U, 0x3c9d5a90be9e9911U,
  0x3e2de5bf3b96f812U, 0x3d7801ad3ecd3dc9U, 0xbebfee64be8534a1U, 0x3de93801bee69251U,
  0xbed4741dbe23d77bU, 0x3df549d8bc81fd58U, 0x3ea115053e8cd478U, 0xbca643dd3ed52c7aU,
  0x3d5ced66bcfd4cbdU, 0x3e21e2b73d4fb1deU, 0xbca185243d4280daU, 0x3de54ded3ce1ab8fU,
  0xbde443af3ee6b01eU, 0xbe55a772bdbd9e68U, 0x3ea58341bec5c1a1U, 0x3e538e9c3dfbc030U,
  0x3d457ede3e824aeeU, 0xbe4f75cd3df7c4fcU, 0x3ea773bbbcdb5c0eU, 0x3ec30750bea24e26U,
  0xbdeb3ad7bc8673b7U, 0x3d0418f63e5c3547U, 0x3d61a2453e73f9aaU, 0xbef22a8bbde0acffU,
  0xbeaf0e593cdfb5ddU, 0x3ecb0aeb3e5c83d1U, 0x3ddde8fe3d09cd59U, 0xbe94a9593ece3235U,
  0x3f1522d03f1802c6U, 0xbf04203d3bb2e027U, 0xbe40b465be9531a1U, 0x3e7e01ffbe9affc5U,
  0xbe5fe52a3de8884eU, 0xbedd6a833e931c22U, 0x3e14442bbe05a011U, 0xbea72094be9f8708U,
  0x3e8a2304be78f9aaU, 0x3da8a55cbe7f67deU, 0xbe86438b3dff1e5aU, 0x3e2759423e818a79U,
  0xbe55ca59be28069dU, 0xbe11cd51be2dc232U, 0xbd7b7a623b406219U, 0xbea919953b60b789U,
  0xbe3479bebe6af9f1U, 0x3eac1eeb3e63ff7fU, 0xbf20cded3e95a1b3U, 0x3ebe2e8b3df5b394U,
  0x3f0382383e5061ceU, 0xbeccc92a3edb5bd4U, 0xbeedfec7beab04fdU, 0x3efec610bd09baf8U,
  0x3e98c684bdef3ab1U, 0xbea8e28c3e499cfaU, 0xbe9dcb1f3e01c3d5U, 0x3e8b63593d8a8becU,
  0xbea89da1bee2721eU, 0xbe2b04cabdd98f77U, 0x3d1569843d6e11bbU, 0xbde3d83bbddff54eU,
  0xbe3cf3bebd2607c4U, 0xbe6199213ec9bc56U, 0xbe7f8b223c6fe110U, 0xbd20aeb73d6f9bd5U,
  0x3e4ab6bd3e0dc0c2U, 0x3e8f1ccfbe8d862eU, 0x3e8a1c373e97aab7U, 0xbed20d333e62fefbU,
  0xbdecb245be96230fU, 0x3e802ed9be37270bU, 0x3e58acdabde0025cU, 0x3e88dec3bc4e6ea0U,
  0x3db459d9bc9dea22U, 0xbe6bb07e3e968611U, 0xbe09e7653d99d7fdU, 0xbda9520b3e85aebbU,
  0xbdb1a5803e1d24ddU, 0xbdfb75803e083be7U, 0xbeb96987be3afe32U, 0xbe8f3bc7bdee2d7bU,
  0xbe74a1d3bed7ca6dU, 0xbe7772b13e80c72cU, 0xbd2336173e88178eU, 0x3e121c7fbe2ac0d0U,
  0xbefc1e423d106895U, 0x3ddfa693bd1e3e9fU, 0x3ee116273e3fa332U, 0x3b857ac0be69254dU,
  0xbda727c23ef52e1fU, 0xbe21e64bbe1d4528U, 0x3dd39cd6bea12de4U, 0x3f1f9f493edf880cU,
  0x3ec8d90abd8b5724U, 0xbe592ec73e049fbeU, 0x3e4fc387be9a1c75U, 0x3f05b1cbbda3dab5U,
  0xbe8b2833be8fcf74U, 0xbdec31023e98bcfbU, 0xbe23a9903ea8bd8eU, 0xbea65a17bdbc4a0eU,
  0x3c64c9c63ed38b01U, 0x3e75e4fbbe6fa5fbU, 0x3efc54abbe64c06bU, 0x3db808ea3cb23afbU,
  0x3e89e1b93e961ab5U, 0xbeac5d00be9db953U, 0x3ec37f7ebdf6d95aU, 0xbc60ea183dc399a2U,
  0x3b4b0d3fbbe9a40bU, 0x3c58becebc0c806fU, 0x3aa8e5133d39b92cU, 0xbabad05ebca0e9ccU,
  0xbce4b94f3daa0959U, 0xbdade158bd4b7e50U, 0xbd99e6af3b6966c8U, 0x3dcd900b3d1a8947U,
  0x3d8e97483ca61715U, 0x3bce2bf4bd2b2314U, 0xbce056043d9cebc9U, 0xbb94b455bd825a90U,
  0xbcec784e3d0e9462U, 0x3d912343bd81e67eU, 0x3cfd227f3cbe1e1eU, 0xbcf11da13e06b8c7U,
  0xbd184e38bdd83c25U, 0x3cd65909bcd5aec2U, 0x3cb1a9d2be071ee1U, 0x3d0245b73c4ac384U,
  0x3d2c4c263d1f3892U, 0x3ce1bac33d3a7ee4U, 0x3dc3ee29be32903bU, 0xbc6666423dcebdc5U,
  0xbd4bb27e3d11e4a7U, 0xbd398a11bc919ce5U, 0x3c022214bd330262U, 0x3dfbd1c63db05e97U,
  0x3cbe82153c10093fU, 0x3ca901713d2161c2U, 0xbb4de9efbd28de70U, 0x3a9f3e2dbb86c91dU,
  0xbcd813723d6066caU, 0xbd5da49f3c93076bU, 0xbd65c8b73d89be7cU, 0xbbab7680bc50d43bU,
  0xbdc414513c06bbe4U, 0x3cacc12d3d5cd1ecU, 0x3dc519f5bc540e96U, 0x3ceb8da23ceb3559U,
  0x3ca63e93bd910e0cU, 0x3d32b42dbe1e0eb9U, 0x3d5b1e62bd49a42eU, 0x3c896fb13dc7337dU,
  0xbe022ae43d094dd3U, 0xbde1cebdbcfd4b82U, 0x3d972ad8bdd66d2bU, 0x3d5cba51bb20e487U,
  0xb94747b1bcc6d37fU, 0xbda8f3133cc02459U, 0xbc4186da3d4b9f23U, 0x3ad17a313d6875c3U,
  0xbd13f5603d6cc418U, 0x3d24e1f93aaf377eU, 0x3d9551a8bcb28fb8U, 0xbaf8c6f83d06e96bU,
  0x3cc814bbbe158e08U, 0xbd58b3f5bb84605fU, 0x3d85065ebdfa696bU, 0x3d4eeabf3bc75948U,
  0xbd04e4563d9b346eU, 0x3d4f3919bda8c76dU, 0x3e1d1325bd126489U, 0xbc822ff83ba7f9a2U,
  0x3dc716a0bd529e7cU, 0xbcfd77ebba4ac236U, 0xbd05ae70bc3778d5U, 0xbd3f98e7bdf561d3U,
  0xbdfabbacbd94ed08U, 0x3cf78c7b3d3aa426U, 0x3d9839b5bda61f53U, 0xbd7fbf3c3dc6287bU,
  0xbdaa2918bb874823U, 0x3d7ec6703d00da9cU, 0x3d7baf4fbcfee02aU, 0x3d8a20863e395bc8U,
  0xbd82785a3cab86e8U, 0x3d1e6950bcd4b031U, 0x3d3ac201bdd0376dU, 0x3d4360693c9dc46fU,
  0xbd6b44753d8611adU, 0xbdcee0113cd5421aU, 0xbd93edecbc5e8b2dU, 0xbbe1eaf63d817016U,
  0xbcac6889bd132f37U, 0xbdabb909bd3e233fU, 0xbd899fe33a1a96ecU, 0xbd5828cfbdc9296fU,
  0xbd594d10bc49f4d8U, 0x3d7bcc59bce8ff9fU, 0xbcb71de13d9bb326U, 0xbdcb357a3ca04163U,
  0xbd920a7a3d41705fU, 0x3d7b5bf93db99637U, 0x3c78d182bb64080eU, 0xbd7a1c683d79e1bcU,
  0x3d7de11abdf39439U, 0xbca2a893bdadac0eU, 0xbc174390bd8f9ab3U, 0x3bea2bdb3ce1fe97U,
  0x3b836f85bbec8ba9U, 0xbc53bdb73c4d2a9bU, 0xbca49654bd6fc37dU, 0xbc1618213d451655U,
  0xbd5c9c00be08b35eU, 0xbdb6406cbd286f37U, 0x3def4d55bd8b2a46U, 0x3d61ec8a3d2a2673U,
  0xbc44bf353d80969cU, 0x3d9ef4873d87b88eU, 0xbbd98d64bd1b2365U, 0x3dac8c6b3d4526b4U,
  0x3cfc2284bcc84fa2U, 0xbdaad2ed3e0e2923U, 0xbd33a25d3d0febc0U, 0xbd062f89bd21bf8aU,
  0x3d0cb284bdd29854U, 0xbd26bdb23d834aa1U, 0x3bf4d8d6bd3eb372U, 0xbd1287dcbc82b8f2U,
  0x3d789d4bbd10cef4U, 0x3e0670cd39313a1eU, 0xbcf0342fbcc34fa6U, 0xbd072f3f3aba29d3U,
  0xbda22be63c8a4db0U, 0xbbe85d223d2c8b94U, 0x3d013ee63d7154f8U, 0xbd23eea2bd4db04cU,
  0xbd7e8e693d076a47U, 0x3c0ea1d2bd48aad1U, 0x3d166d1fbde4c787U, 0x3e27ee583d2a4d2cU,
  0xbc1f46f03c42b231U, 0x3d0ff59e3b1fc486U, 0xbd2ea320bd759539U, 0xbcac4f3b3cb74b7fU,
  0x3bb4a086bda1614dU, 0xbd04781c3d859815U, 0xbce577c83cc0434cU, 0x3d3057a43d827295U,
  0xbd8e845dbd41cc9fU, 0x3d8de2ad3d1d37faU, 0x3c9a23df3ba54ccfU, 0xbd8184c03e50e88cU,
  0x3d172a943d241d82U, 0x3d4e566dbd0afab1U, 0x3db48fcabcd39108U, 0x3d4e8424bbd43d50U,
  0x3d5e57873cbb140eU, 0xbb88fc643d49447fU, 0x3d8bce1abd80be7bU, 0x3d8990b23dcbc901U,
  0xbbdc35d1bd411191U, 0x3d1293d03c03200dU, 0xbdbd9d6f3d16d4a8U, 0xbd374aaf3ce05fc1U,
  0xbd86b62f3d2ed08aU, 0x3d9a3359bc4334adU, 0xbd9ebc6abd85e809U, 0xbd0a4ba83d1cc682U,
  0xbd4047cd3db8bca2U, 0xbbbc7fd83d20cb3eU, 0x3ce63bfdbd94c226U, 0x39c588923d8ca536U,
  0xbda33f5d3c75aa9aU, 0x3d540dd13c7ded59U, 0xbb442e653d681444U, 0x3d296aa6bdc56c35U,
  0xbcde99463ae096c5U, 0xbdcb39473d7bcdd1U, 0xbd9af9adbd880604U, 0xbc013bc3bcb608b5U,
  0x3d9ec34fbd9702e4U, 0x3936eb6abb479004U, 0xbd95d3553db2fd43U, 0x3d2ca2bf3b76e035U,
  0xbd72bc27bc847fd7U, 0x3c5e5d033d829f7bU, 0xbd4618183cc98b92U, 0xbd81362bbc58d818U,
  0xbd64352fbdd70d13U, 0x3c460001be043180U, 0x3d3ba740bdfc5ff2U, 0xbcf2f01c3e4676caU,
  0xbddee9633e4347d1U, 0xbc276413bcfdc4acU, 0x3d1ee4ecbd6c3584U, 0x3e07770a3dba9df3U,
  0x3d0844dc3c49a21cU, 0xbe0d19e3bc2c3356U, 0xbd92b94b39dc9f5aU, 0x3e048948bcc46bf6U,
  0xbd8ea36f3d31a2f0U, 0x3c8c6a9e3c0f1a54U, 0xbd00d632bda438ceU, 0x3d8ea3953d46bc8aU,
  0xbd382387bd558afaU, 0x3ddff503bcb3641aU, 0x3d219ad03d8e352bU, 0x3d203bb53e0371abU,
  0xbd9fba13bbf15dd0U, 0x3c10e4e7bd6e625eU, 0x3d9f8137bd95d09dU, 0xb8f1eae33d24618aU,
  0x3d4b191c3caffc75U, 0xbc7d8f223c8adcb5U, 0x3d48871d3d743c5eU, 0x3ba7fbf13c5bc3b1U,
  0x3d527d953d4b6ea6U, 0xbd50a06c3d14d55dU, 0x3dd788fabc9e2dedU, 0x3e0a2cd3bd6bd58aU,
  0xbc8d4546bda46c64U, 0x3d31ffa1bbfd8b59U, 0xbda755ce3dc28fdcU, 0x3d4bbe863d4063cbU,
  0x3d35b0e53c8ffbabU, 0xbe0fb91d3d8156c6U, 0x3e0582f5bd5cdf80U, 0x3daa2a963cd4c420U,
  0x3d34e45ebbb6ad90U, 0xbd5a1a913da1fcdcU, 0xbdcc97213dad633aU, 0xbd70dbdebc0f1daeU,
  0xbdc743573a532943U, 0xbc8d8234bd1ce69dU, 0xbd293a213c2ada39U, 0x3c9f4875bd65418fU,
  0xbdd4a3893c0fb019U, 0xbb82ddf8be14e251U, 0xbd6a883eba16fdc4U, 0xbc1d41df3d3e1b76U,
  0xbc8a71343cedf513U, 0xbd5ff80dbcefc489U, 0x3dd440c63dc7c83eU, 0x3d0dd8263d802f62U,
  0xbcff49c4bd5aa96aU, 0xbcbd1df13d410d07U, 0xbd6175ebbd511498U, 0x3d4034b9bc6997f8U,
  0xbd2e946c3c532904U, 0xbb91c26fbbb88a4dU, 0xbcb2d6873db819daU, 0xbd8d66033d083edfU,
  0xbcfc4ca03c226d8aU, 0x3dc75eb3bde114d6U, 0x3d9783a8bd0fc167U, 0xbb774f053dce0db5U,
  0x3c87c57c3df18c9aU, 0xbdfae402b920f4f6U, 0x3c6206cbbcced04eU, 0x3dad9a233c454809U,
  0xbdcc340e3d74e48cU, 0xbe031a7c3bc039fdU, 0x3d05960cbcb57913U, 0x3da94f5c3c751587U,
  0x3d6511a4bd37a0e6U, 0x3d1b4e553b8975d6U, 0xbc3ff8dc3cfba1fcU, 0xbb9c57ea3d94d2d7U,
  0x3cabd5d4bd5d6f2aU, 0x3b1159ccbd1fc6a1U, 0xbd167482bcb1dec9U, 0x3cf0c72e3da5c858U,
  0xbdcd16ab3d3d7c29U, 0x3d47889abd7fa933U, 0x3dcd8663bd5851f0U, 0x3dc325343d4adc58U,
  0x3d86f6b3bcf56cd9U, 0xbda2ee58bda9b89aU, 0x3e16b905bd22ab18U, 0x3bdf8820bd0ccdf7U,
  0x3d35fdaa3d93d396U, 0x3c6182bc3da17feeU, 0x3d272b10bc0c504dU, 0x3d39902d3d01d55aU,
  0xbd76978dbb880241U, 0xbd84d4f53d373aeeU, 0x3b8c8a2d3d7f2bdcU, 0x3d85cd713b14bcb4U,
  0xbd656f6abd021e5eU, 0xbd8d7c023d4d583cU, 0xbd67f399bd7a8ecfU, 0x3d8785453d568778U,
  0xbdc58b9cbdfe16e0U, 0xbcb7959bbbf61fc1U, 0x3d48eb7fbdcf4a3dU, 0x3d1117b13e116f96U,
  0xbd85f3e73d26943dU, 0xbdc0cdc2bdc013d4U, 0x3da4c548bb1cca52U, 0x3cef1abd3dc947c3U,
  0x3d8586e73c805e4aU, 0xbc764cdbbcc69b15U, 0x3d078490bd623e90U, 0xbd5d7fe73d73c45aU,
  0xbdafd97ebd1ed618U, 0x3cd35f0b3d7b385eU, 0xbd6da2963d443731U, 0x3c8457c63d5e3297U,
  0x3d59b299bc7c20f1U, 0x3d54f2f3bccebcc9U, 0xbd43b3383ba1ad6bU, 0xbdbfde1d3de2ba21U,
  0xbc459a41bc20081bU, 0xbd8a89a3bd8812acU, 0xbd95e433bde1b9c5U, 0x3e185982bc83d108U,
  0xbc905b85bdc5f422U, 0xbdcf62503d4519b5U, 0x3c7a0d29bdcc1eb4U, 0x3dd911c23d6e3526U,
  0xbc23e3663d9c6aecU, 0x3cf0b802bd307741U, 0x3d94fce0bd9cbda6U, 0x3da30a2f3d0d943fU,
  0xbdd969c7bc1df977U, 0xbd97ad8abcaa71b8U, 0x3d4ead743cd022b5U, 0x3dc84c2f3d911d64U,
  0xbca97a8a3d462763U, 0x3bbd91b73d0e2b27U, 0x3e1144ac3d590592U, 0x3da469e93d086787U,
  0x3dbed98b3c7f3d06U, 0xbe0529143d470d66U, 0xbd4276d83c841051U, 0x3daf65563dcc1e82U,
  0xbd6ed688bc9d734aU, 0x3c84a8d1bd214412U, 0x3bfc76a6bd992fedU, 0xbc0d7fec3d9ba93eU,
  0x3c07822dbc53f9a3U, 0xbd2616303d63608dU, 0x3e02469a3d1c9feaU, 0x3d95c3d0bd18261cU,
  0xbc08e62cbd23a752U, 0xbd45886cbd736864U, 0x3bd3d9dd3ce4d83bU, 0x3d464782bd48c875U,
  0x3d35041ebd30440dU, 0x3d8e97efbce3f4a1U, 0x3b5d4b0ebd294ebfU, 0xbcc3932d3ccb96bdU,
  0xbd185cffbd463bbaU, 0x3d77f3a1bd98c0f5U, 0x3ccbd92dbd7336dfU, 0x3c941c093c22a4caU,
  0xbd87c259bd55401bU, 0x3c9ff0cb3d4bb31cU, 0x3d809c01bd9920ddU, 0xbd8813173ba81d2bU,
  0xbb5b2587bd98ba6bU, 0x3cff3ca2bcea8b58U, 0x3dcb2bf9be12299bU, 0x3ddd36513dfe4e9dU,
  0xbd8ae0f63dd5e726U, 0xbd236fa93dbd89b2U, 0x3e0072833c926b2dU, 0x3e1153b4bc081f78U,
  0xbd46c05e3ca3fdecU, 0xbd313bb93dbad935U, 0xbdbb271a3dd4034dU, 0x3c3295e33d04092fU,
  0xbaa5f5e63c6d978cU, 0x3d4288603db55dceU, 0x3d717aa33c0fe618U, 0xbd28dc573db334d2U,
  0xbdbf91a13df3972dU, 0x3e03ab9f3cc3dd7aU, 0xbc67e36cbdbb3c8cU, 0xbd76dfd33d8456fbU,
  0x3d3423803d99f82cU, 0xbda771e1bde70473U, 0x3cc0607cbd9cbd6bU, 0x3dc030013e0a5904U,
  0xbda6018a3ded64bfU, 0xbcc026343d2acaf5U, 0x3e1a71d0bdbb2935U, 0xbc168b32bc12a20eU,
  0x3d1fb5c63d898d5eU, 0xbd5602e4bcfc21baU, 0x3e03249c3d7156a0U, 0x3dbe401abcb88206U,
  0xbdb326bdbd8fc784U, 0x3c5fe4393d223817U, 0x3df65405bd75a9efU, 0x3cfe1f403d1dc7dcU,
  0x3bec4e303ce06621U, 0x3c98f6dbbd29a80dU, 0x3df6f81abdbe7691U, 0x3de7721b3d660f8cU,
  0xbdbc84843d736711U, 0xbdec9d23bd43c7aeU, 0x3d0de81ebc26550eU, 0x3e2143e23d48db04U,
  0xbd579241bb815e78U, 0x3d2bb4663cae508eU, 0x3d0d05543c5da565U, 0x3b50f77dbc7e17fcU,
  0xbd87c0c0bad9240cU, 0xbd37eeb6bd29859bU, 0x3c6eedc2bda3217eU, 0x3e16dcdb3e63028cU,
  0x3d7355773ded6de1U, 0x3d78d77ebc24fdf4U, 0x3e058ba8bc62d4c6U, 0x3e1a888e3d5e75f6U,
  0x3d759fdfbcf1b38bU, 0x3d049c3a3d53cf22U, 0xbc5e8c20badd14fdU, 0x3d529cd8bc8ba1d0U,
  0x3c928df53da06d3dU, 0x3d8feaf83d8dc28bU, 0x3e4986e2bda17923U, 0x3dbb529a3e274a1aU,
  0xbbb5765ebd8173cbU, 0x3d1428e13c847bf3U, 0x3da94bd9bd300d98U, 0x3e1e2f733df89f09U,
  0x3d3e8014bd358e8eU, 0xbbfbd05a3d867d19U, 0xbd5d7c09bd911e78U, 0x3c0c8bc93d842579U,
  0x3d6bb99dbc6675e4U, 0xbd6e9b72bd58f78eU, 0x3d8a7b36bdcce04dU, 0x3e64873f3da9ed6aU,
  0x3dd06b7d3c830c4eU, 0xbd5f3271bd7dfb9eU, 0x3e064d59bd6d3a53U, 0xbcf96db63d44c065U,
  0x3bdb71eebd854472U, 0xba5e9df73c81b5cfU, 0x3d6cec8e3ceebaf4U, 0x3cb27ca43d97cca5U,
  0x3b5955153d362620U, 0xbce13e12bcda0ed7U, 0xbbf242f4bd66a591U, 0x3d2ba49b3cae688dU,
  0x3a8859713b579978U, 0xbd409fad3d8da525U, 0xbd2e03b83d174440U, 0xbd007898bd2e6a02U,
  0x3dfc8ae33ca0635cU, 0x3d2e84583dbf9169U, 0x3cdb3308bc862499U, 0x3d5311053cdbd339U,
  0x3d5a454c3b699fb2U, 0x3d9c9a81bd846f71U, 0x3d5e837b3d8fd3aaU, 0x3b04803abc96341eU,
  0xbc839fd8bd89ea7aU, 0xbb9f638abd3f8dbbU, 0x3df531643c496889U, 0x3d87b18b3cf5ba12U,
  0xbc396b653cdc471cU, 0xbd4e35b93b7aca32U, 0x3d136f30bcef6798U, 0xbbc3b3a73d9e0d2eU,
  0x3dee0472bd2726d2U, 0xbd5020c03d81607fU, 0xbd4d2ccdbd7cd79eU, 0xbdab24113c7a13d8U,
  0xbd8cbb25bd9d916dU, 0x3dab42d4bd2e6978U, 0x3d3933573c1beb4cU, 0x3dbd11943d90ad69U,
  0x3d0d87c33dafdd2aU, 0x3ce187fcbd812424U, 0x3d93f0abbc15d1a0U, 0x3e3988b13ccb67b0U,
  0x3de02766bc62c319U, 0xbbaf0b133da4d503U, 0x3c0ac8763d0257e3U, 0xbc8865e83d8653acU,
  0xbc6b1a743ca8ad57U, 0xbc3c9d463db2af4aU, 0xbd1be9913d785270U, 0xbc60e1953d466c6dU,
  0xbd8045313ad19e01U, 0x3e0ac5fcbd151646U, 0x3d63375f3d10f399U, 0x3d911dab3c9c8b5eU,
  0xbbb551eb3d2bad0aU, 0x3d66e2c6bbc1347bU, 0xbcbb0422bd06e08cU, 0xbbc08fecbd702622U,
  0x3da12efabcced6bdU, 0x3d696bcdbd8aca09U, 0x3d3cfb093ddccbf7U, 0x3d50c4373d426bd8U,
  0xbb8b72053da01913U, 0x3db32ebf3cf799d7U, 0x3ca1dd123cb8fe48U, 0xbbfafd1bbc64be44U,
  0xbb13dd483c6370beU, 0xbc9eff393e0021d3U, 0xbc89b47f3d936322U, 0x3d295aee3d999e11U,
  0xbc8bedc13d9c17f0U, 0xbd9754bf3a766c3cU, 0x3e5a6db03cb37a4fU, 0x3e5c58653da95111U,
  0x3d7c6002bc2bef6bU, 0x3d332c0d3d9f86e4U, 0x3bd2ef3c3dfdfb0eU, 0x3da419273dd2ed5bU,
  0x3c903cebbccda807U, 0xbcbbdc243e12c0a9U, 0x3d8873aa3d3b41b7U, 0x3dc8702e3dc059e4U,
  0xbdae804c3d3cb9e5U, 0x3d7b55f4bdafae05U, 0x3cfbcde53c38872aU, 0x3dfbfb423e177aaeU,
  0x3d91fa493c40d7a8U, 0xbda2d1233daee4c6U, 0x3d855d0f3d28a617U, 0x3dae33813dd30116U,
  0xbd252fda3d88c609U, 0x3d1336173cfa88baU, 0x3d9365513d6837bfU, 0x3e0e8bd13dd4893cU,
  0xbd954ff63d02f393U, 0x3de98f6dbd060a5eU, 0x3caa3939bbc9739eU, 0x3e1fa3953de89ad0U,
  0x3d4a03d73aee6070U, 0x3b5965c0bdb70b6cU, 0x3dfbae673cbbd694U, 0x3cffc29c3d9bbf97U,
  0x3e08b58d3caa88ddU, 0xbbc249d1bd8034fcU, 0xbd2dbcd5bd1ab6d5U, 0xba468614bd2e5fd3U,
  0xbd8340903df32897U, 0x3dd3ebe6bcf9157dU, 0x3de7de99bd096280U, 0x3d60b23b3df18078U,
  0x3d35addd3e14b75cU, 0xbd8626ae3d36e5c8U, 0x3d5f3bbabb368b6cU, 0x3e226dff3dc1cc8fU,
  0x3d9e18b73c2ada59U, 0xbd5a859e3db1ec09U, 0xbdaaef5b3d2750e6U, 0xbd97af4dbd01a69aU,
  0xbd168e69bcae5d65U, 0xbcb1149d3d0a11e6U, 0x3e860e6f3d8f222fU, 0x3e0598013dad9a40U,
  0x3cd7bfc23da0b7f8U, 0xbd1410c73cb3dd83U, 0x3d9217603dd20f32U, 0xbcaaed4f3e201a2fU,
  0xbca03bf2bd4af0c5U, 0x3db66679bd973f3bU, 0x3d94b35dbd1ba136U, 0x3b2717b33c7c7184U,
  0x3ce45413bbee1908U, 0xbd4f3a343d317539U, 0x3e4353853ac8a8c1U, 0x3d348c603e12339aU,
  0xbd19317e3c14cda2U, 0x3d199df53cccf459U, 0x3d31f7813bf5b94cU, 0x3df1ad1bbd8f8421U,
  0xbd393a0f3d579c1cU, 0xbd3768b93dafc3c1U, 0x3d7f84c03de910a5U, 0xbc7bd9c43d62a799U,
  0xbc01b58b3c94bc9dU, 0x3c994f013ca1a5dfU, 0xbb1bbeabbbc493bdU, 0x3da47fd63db06d7fU,
  0x3c8ba09ebda8774bU, 0x3cd8ab77bce5e8b3U, 0xbd1d785d3da20950U, 0x3db21fcf3d888e01U,
  0x3c96cdf03dc4b633U, 0x3d870ba3bd6be5fbU, 0x3d6cfbb7bd670d27U, 0x3e173492bba71f6fU,
  0x3d420f623d15d983U, 0xbd79ea0f3d69e63aU, 0x3e5839d6bc387c1aU, 0x3da22e0c3d89d4a9U,
  0xbd760567bd3ca86eU, 0xbd198f10bd348295U, 0xbbb388a7bcdd6cf0U, 0x3d87603c3d9feff0U,
  0x3c17c336bc2d9877U, 0xbcae24cdbc1b9879U, 0x3e4b240cbd176f5dU, 0x3daa14483e1ec164U,
  0xbcefc60d3da3eb65U, 0xbd100c833dbb0a9cU, 0x3d97e46d3c42ece0U, 0x3d8f707e3e1e92f7U,
  0x3ceba0fd3d6637d9U, 0xbc84afe73ce19504U, 0xbc74a3d1bc70dbddU, 0xbc0349b9bd3fb011U,
  0x3d2b000ebdec5a0dU, 0xbbc825f8bd6d46ecU, 0xbd6e8964bda39978U, 0x3c68f9fe3e223b89U,
  0xbd20d196bb00e014U, 0x3cc07860be15822cU, 0x3dcac88dbd53e74fU, 0x3dec16a63dee750dU,
  0x3bcf4fee3c8b9b37U, 0xbde2d60d3d865eccU, 0x3df06374bc2d53fbU, 0x3e3417e73db287adU,
  0x3da07e26bde4033eU, 0x3aad40413dc5f175U, 0xbbe474363d520b57U, 0x3ca7e42b3d4d4162U,
  0xbd53377abd761a3fU, 0xbcac67f43d52900fU, 0xbc7025e6bda1af4cU, 0xbcf818be3db86732U,
  0xbdbee4c93dd8f638U, 0x3c1e25773daa2a4aU, 0x3daa89843c278447U, 0x3e1f75273e2e7606U,
  0x3d4566b83e06908fU, 0xbd19758bbcb28384U, 0x3e25c635bd88edc2U, 0x3e0f94223dc8239fU,
  0x3d1963843d1d586dU, 0x3c1c4a903d279fb4U, 0xbd898e58bdabb76dU, 0x3c9b791c3cf35ec9U,
  0xbcb79c7e3d317fffU, 0x3ccce95e3d524c0dU, 0x3e0fa5fbbdff6e91U, 0x3dd9576a3e02cf11U,
  0x3dda7c4a3ddfea7bU, 0x3b33918ebd63c337U, 0x3ddd0dcd3d294e60U, 0x3e5a8cee3d939972U,
  0x3ce92190bd178346U, 0xbc13ee6e3e278110U, 0x3c9a944a3d776227U, 0x3e0ef6e13d9f5a09U,
  0xbd0fe7043bd026a5U, 0x3d26c5c43dfcbf99U, 0x3dd4e3233bfc3bcfU, 0x3e29880d3da200c9U,
  0xbd65d928bad177bcU, 0x3cff7d0b3b679884U, 0x3d1654903aaa9b92U, 0xbd0f1d613e040dc7U,
  0xbd3267bf3d02ab3bU, 0xbbb9d3c73c852b65U, 0x3e4088e8bdc25f12U, 0x3e197dba3d527406U,
  0x3d4ea7e33d779ef6U, 0xbd4aee93bcf725daU, 0x3d92049fbdd5e567U, 0x3e0455ee3e0b6176U,
  0xbd9a3d3d3c9a1e3dU, 0x3cf6d8c9bb60b75fU, 0x3d96bfe3bd96f157U, 0x3dcf98263d82ea86U,
  0xbd295b093da55ad8U, 0x3ce7378bba183fa3U, 0x3cc84fdd3c88ab7bU, 0x3d2453853e0cfc6cU,
  0xbc9c42a53cc9d65cU, 0xbbacd9cc3df0e630U, 0x3d831cff3d96a916U, 0x3c8a1bf83d90fe41U,
  0x3b8a04123dd74b78U, 0xbd24e749bcd3dc11U, 0x3d4bb589bc64adf9U, 0x3c8f229f3e0ff65aU,
  0xb9683e76bc9aa813U, 0xbd20b701bc7cd558U, 0x3cb4960ebc922b6cU, 0x3c99a7fb3db2cf14U,
  0xbd72caeb3c0c7c96U, 0xbca7b48a3d8783aeU, 0x3c68796e3bb14268U, 0x3da700e13c1a4e82U,
  0xbd93b1ee3cf4abccU, 0x3cee81e23ce69639U, 0x3e114686bd6d2d1aU, 0x3e003cc6bd61bba1U,
  0x3d1c4152bd6b4f7eU, 0xbd8246113d6b5583U, 0xbd795703bc81318bU, 0x3d8bda903e211ae3U,
  0xbce900a73ccbbe49U, 0xbd11ead53d2dea4bU, 0x3da3a4dbbaf42efcU, 0xbc28dc09bd81a578U,
  0x3cba7f39bc081725U, 0xbd9e10f23d54b94fU, 0x3e209cd73d50cfacU, 0x3d1940843c758192U,
  0x3d2380d8bd10e764U, 0x3c4ab85dbce3f3f1U, 0xbcbc6b3abcb6cfa5U, 0x3dd1045a3bda3e96U,
  0xbd46c73f3d4d163bU, 0xbd9476de3d4e8d42U, 0x3e52bfb23b6e8935U, 0x3d88d04d3e00bcd9U,
  0x3cc12f183dd873f2U, 0x3dc825ce3d1ec514U, 0x3e44975e3d88d6b2U, 0x3dc92dd23deb6482U,
  0x3d56b0193d876a47U, 0x3d3f7df53d8587efU, 0xbc95a9fbbe04a113U, 0x3d27ee3fbb2b782bU,
  0xbd0898da3c059d35U, 0xbcc97e9b3ba081a3U, 0x3d39ba063bd57021U, 0x3e20ba233e7b33bfU,
  0xbc8f44e03de0ff86U, 0xbd60d0ae3b11465cU, 0x3e29a744bbd7cd9bU, 0x3e5964b63d8fbe39U,
  0xbcbc22703c3a3a9aU, 0x3ba6def43dbe0748U, 0x3ddac9363df247ceU, 0x3e7392f6bc585814U,
  0xbd3abc06bd48df18U, 0xba5483013dd4248fU, 0x3d9da3a83dc16651U, 0x3c436c963dfef060U,
  0xbc5727d9bc23ff18U, 0x3db361f03ccce2b5U, 0x3d876aec3c810995U, 0x3e1d53f03df48b55U,
  0xbc5784043c7ccdc6U, 0x3abf7a943ce931d5U, 0x3da3fff2bb920e39U, 0x3da838423e23be61U,
  0x3d614cb43de7acafU, 0xbd99eca13befdf99U, 0x3dc5e36fbdefd876U, 0x3e154a743c97a5c0U,
  0xbd5ccf7b3e022809U, 0x3da5f82d3d841a36U, 0x3d2158653b9ab747U, 0x3e0b62513df2c2f4U,
  0x3c9a8555bdb89fafU, 0x3d9c83b73d41028eU, 0x3e401aa0be01583cU, 0xbd8d121c3e81971fU,
  0x3ae22ae33c5d89fcU, 0x3d9a7057bde580b0U, 0x3da97951bcdfff5aU, 0x3cfaef0dbd57ff1eU,
  0x3d67646e3c9f2d04U, 0xbd27b047be1618edU, 0xbd47cff2bdcee60fU, 0x3cebc41f3dd354a9U,
  0xbd8a82073e1929a4U, 0xbc8e71e73d8163f8U, 0x3e28e26c3ba646c8U, 0x3e23839ebd34a7b6U,
  0x3d20e2723ca170fdU, 0xbdff6b5c3dbcb87fU, 0x3bb1f2993da43eb4U, 0x3d3c8449bd740960U,
  0x3be7dcdbbdc93464U, 0x3de61d963e2f97f3U, 0xbe9235f83caf09d3U, 0xbe7aee413d5ddb96U,
  0xbda97c46bd99fc54U, 0x3e0dddd4bcc3b7abU, 0xbd8bf7043c8217c8U, 0xbe02e8a23d876b4fU,
  0xbbfe09f23c0eab73U, 0x3be17aeabe298b0eU, 0x3d758852bd3e950fU, 0x3db86fa53d21ea2eU,
  0x3d9b46283bf4e04dU, 0xbdec7d993cf7e634U, 0xbd69ee683cc1a162U, 0xbc87240bbe1d5090U,
  0x3d2720113d9c6a49U, 0x3d1662883dee0a22U, 0x3d402c993db880c4U, 0xbd5b14e7bdc65ccaU,
  0x3d5d4fa5bdd62a81U, 0x3d7bf3a53dab744dU, 0xbc620e483d86198cU, 0xbe107f85bcce3dc3U,
  0x3d74eb0bbc64352dU, 0x3dccafa5bdfb5087U, 0x3d194f54bd8d77a2U, 0xbd0cfadf3db7be0bU,
  0xbcc589c13d51474dU, 0x3c2b4632be1e882aU, 0x3d32c99fbdd8315aU, 0x3d3ba33b3d4e0ad1U,
  0x3d91c5e73c58a490U, 0xbe5b289a3d5a6cc0U, 0x3d35566a3d53ac98U, 0x3d8bb822bd28ed55U,
  0x3cf6132abd929c3fU, 0xbd37aa643e2966a1U, 0xbe2e463f3e0a3ad0U, 0xbd3d8ea1be5e0806U,
  0xbccf02a2bdbd7eacU, 0x3d8217b13e0b49c5U, 0xbe72f00c3dd13d51U, 0xbe645c4bbe008945U,
  0xbdc62dfcbde5f4abU, 0x3db3f135bdb9ff4dU, 0x3b8425acbd2d8f39U, 0xbd95ee80bc02414dU,
  0x3bef11703d8852daU, 0xbe0ada6cbdf3dde0U, 0x3d9d7540bd17e995U, 0x3d5c52bdbcf42481U,
  0xbc4d63503d92e510U, 0xbd80d89f3d91934aU, 0xbe0782a33da147f0U, 0x3cc132bebe397504U,
  0xbdc40ed1bdef2db3U, 0x3d33ff463d8b064eU, 0xbc9aa675bc4b792cU, 0xbddbec603d624090U,
  0xbd4a8dbdbd4228c2U, 0x3b497628bd3dd479U, 0xbd5a20253d116a4cU, 0xbc956a903d6154dcU,
  0x3d83d99cbd1e85c6U, 0x3d1c19ddbd63ba18U, 0x3d11ea3fbdbe3bb3U, 0xbb41d1683d9ea6cfU,
  0xbd2198a3b95783d7U, 0xbc62e76ebd5177a2U, 0x3d262ed8bdceaaa4U, 0x3c6384553bea662aU,
  0x3dc3db443dab5fa5U, 0xbd52e0acbd17d165U, 0x3d949cd13d2124dcU, 0x3d8faff43d2e7d0bU,
  0x3ca26455bc387138U, 0x3d8233a53d52973dU, 0x3da8ada83c453adfU, 0x3c8d7c10bd478126U,
  0x3c077600bd799dfdU, 0x3dd18cc73cbf1323U, 0x3be7a894bb815df1U, 0xbd275f25bcbe954fU,
  0xbcd50b26bc26e384U, 0x3d4e74423dab4675U, 0xbd6b35df3d6e5a5dU, 0xbcf122d3bd9d6806U,
  0x3ce78657be02ac09U, 0x3cd14bfdbd710f22U, 0xbe04e7183d49d128U, 0xbe2e92ab3bbb7156U,
  0xbd60b0ccbd9b0f1cU, 0x3a8dcf4bbd3c0aa5U, 0x3c00d4ddbb1b35f2U, 0x3dbe4465bcfbbad9U,
  0xbcd290b73d8cea83U, 0xbd37e4acbc78f1c0U, 0x3d4676d43d8a8081U, 0x3d88c7dbbd2da72fU,
  0x3e2067463cbda8fbU, 0xbbf2406b3d2c508fU, 0xbd9de57d3e395ea7U, 0xbd81a897bdda76cfU,
  0x3cbc1bf4bd6d7796U, 0xbc9038f73dd7687eU, 0xbe2aa9193d831a6aU, 0xbe2f752fbdadede3U,
  0xbcd48690be7197c4U, 0x3dc66ebebe1bd3ddU, 0x3b6a2945bdecf923U, 0xbe17171c3e1f2855U,
  0xbd88a4c83e234aedU, 0x3ce501bbbe8ff326U, 0x3dc0742abd87743dU, 0x3e25beeeba10c6a3U,
  0x3d5792fb3da91473U, 0xbe57f02cbc332edcU, 0x3d5bcaab3db00dbcU, 0x3d3d9eb7be264afbU,
  0x3d057a4fbd524507U, 0xbd0b46983be25390U, 0xbe733bd33e0ec4e1U, 0xbdda45f9bd498e65U,
  0x3da0baaabd63ea2fU, 0x3d980fc63ca99754U, 0xbdff1ac83d22754bU, 0xbdb9e8f73c5f20a4U,
  0x3da20c9bbc746f15U, 0x3bf82be7be27cf24U, 0xbd8a1c34bdc08c58U, 0xbddc9d663bb16edaU,
  0xbcee7fa83df07c2cU, 0xbc4e9ababd669749U, 0x3ced1bee3d3fb04fU, 0x3dd9e5e5bcf97fdbU,
  0xbd260b2c3e131a9fU, 0xbe12c6e93d09363cU, 0x3c66ded93b812fecU, 0x3da28ea5bd93e38eU,
  0x3d810c9fbd28c003U, 0xbca628503e1ec407U, 0xbd1e2b683de7a9c3U, 0xbdb14918bdb00d56U,
  0x3c9cd2bfbdf7fcd6U, 0x3dd0c463bb188882U, 0xbe36bf653d27e848U, 0xbe03cd093d24e507U,
  0xbda406e3bce345fcU, 0x3df64b0bbe4cd05bU, 0x3d3e2c25bde47c90U, 0xbc6149363ddf02abU,
  0xbd8f764a3d7ac3eeU, 0xbdac03e3be023320U, 0x3e27d351be02dcfdU, 0x3e78171d3e0301f2U,
  0x3dc2b9353e39e5a4U, 0xbe22cb383ddfecd5U, 0x3ce0c5103d7dd6caU, 0x3c094b32bdac680dU,
  0xbca6d43fbd616c82U, 0xbca5755e3e187514U, 0xbe3836283dd4760eU, 0xbdd88921bd38aa25U,
  0xbb5191e93ca23ea1U, 0x3e018a6ebd969c18U, 0xbd2183cc3e23611fU, 0xbe08228c3d30c3afU,
  0xbc94912dbd96e99bU, 0xbc950727bdc5d7bcU, 0xbdfc0a54bd5f189aU, 0xbd42ccffbd55c33cU,
  0x3c9368c4bd3a1d56U, 0xbd135239bdfb4342U, 0xbb9653b5bdb2e5f5U, 0x3cffe53bbd464f36U,
  0x3cfe37de3d0930e0U, 0xbda23c173d322268U, 0x3d0d65c83db2dde8U, 0x3bad856cbe2c7cc5U,
  0x3d8145143d87e029U, 0xbddf42753d29f416U, 0xbdfd618b3de110a5U, 0xbe27e9d0bdd93251U,
  0xbb23b471be014302U, 0x3da09d2e3d02ce33U, 0xbd1d257a3d6161a3U, 0xbdbb77e33d8a5114U,
  0x3bbadc393e02695cU, 0x3dade086bdf75475U, 0x3d6a9dbcbd8cf14fU, 0xbc8e4fc13dafa5daU,
  0xbce570c33da42024U, 0x3b179799bd91c33eU, 0x3d7b37563d0866e8U, 0xbbe95a8fbce84067U,
  0x3c7293683d1ed147U, 0x3d20cc1cbd05653cU, 0xbd01faa6bd2f2b95U, 0x3d0f36a43d2a1445U,
  0xbd453d503da8dd3dU, 0xbcc303c2bb8171b7U, 0x3e1d3ad1bb001affU, 0x3c84f4e9bc2b67f3U,
  0xbd60be8a3e2ab0a3U, 0x3b798d3f3e1a893cU, 0x3d969eea3dbcc473U, 0x3de37947bcaa154bU,
  0x3d3b0dd8bd968f01U, 0x3d6378a33e494e59U, 0xbe19a0653dc09303U, 0xbdd4c504bcace060U,
  0xbdf5b3d3bda9aeeeU, 0x3e16b69e3d05c2b9U, 0xbd791d6dbc54c8d3U, 0xbe3a31e33e5d0cd2U,
  0xbd9f515f3dd38f53U, 0xbdd77f94be2ff874U, 0x3e04667dbcc52fa0U, 0x3e1a39153db31cb4U,
  0xbd9831c43e34185dU, 0xbdfb60d2bd34e875U, 0x3ddcd4163ce87696U, 0x3dd68f3ebc8dda44U,
  0x3ca9dbd3bd82e3c6U, 0xbd7b6b2d3db7642cU, 0xbe799a893e148d84U, 0xbded1297be788bf4U,
  0x3c24a70cbe3e3e0aU, 0x3e1d4e413cdf6c7dU, 0xbe0f08563cfd0406U, 0xbe658aac3d7e89aaU,
  0xbcc532eebda58e4eU, 0x3def1664be72d691U, 0x3cb59a1cbe50705cU, 0xbcc0c9c43df5926dU,
  0xbc7e66f13da537bbU, 0xbd4e8791be8224e1U, 0x3e023910be0e8c6eU, 0x3e5c82f73d3aea1eU,
  0xbcf398c03d57d0f8U, 0xbdae1f1c3c14b259U, 0x3d9c2454bd3827deU, 0xbd0e7867bd771a37U,
  0xbb89ffadbd2cce8bU, 0xbd49cbf53e04085bU, 0xbd63f2093d880012U, 0xbd2a91d8be26fa8eU,
  0x3d1f04dcbdd08023U, 0x3de47ecb3dfe8394U, 0xbe91f2373deaea8dU, 0xbe48d4bcbdd39b56U,
  0xbdde247bbdd70d79U, 0x3dedf83dbd80faf3U, 0xbe19ae16bded0688U, 0xbe4277223de3bc65U,
  0xbba76b4c3d871437U, 0xbcdf904bbe1254e5U, 0x3e1d1bc8bdfc918dU, 0x3deaeb5a3b3e7386U,
  0x3d77c0503e0182b1U, 0xbd421c8d3d91554cU, 0xbd88bd6d3c277e06U, 0x3d6b6ca7be457c43U,
  0xbd612d2abd87571aU, 0xbd7b5ddf3dfbb9c6U, 0xbd52e07f3e0ca869U, 0xbdec1d8cbdf2de10U,
  0xbc7bc704be3eb3d6U, 0x3e08b3b2bd4badedU, 0xbd8a74a43ce203f1U, 0xbde194323daacf5dU,
  0x3b954591bd36f992U, 0x3d986b86be494e8cU, 0x3d40b7c6bda5147cU, 0x3cdb2dba3e0b05c1U,
  0x3d21bfd8bb76510fU, 0xbd8c47bbbd964047U, 0x3d9ea607bd8e340cU, 0x3de8ea44bd58ca65U,
  0x3d38a6823d90eb4fU, 0x3cae329a3d9b7680U, 0x3d99cec13dc1f2c1U, 0x3de28f3dbda47784U,
  0x3c3838913db41fecU, 0xbc61b1283dcf9f02U, 0xbd6b09a83e18210bU, 0xbb6bf85cbd929fe9U,
  0x3dc74794bdb818a5U, 0xbcafd7c83d8364ecU, 0xbdd8e8e13d187236U, 0xbdb559ebbe25def8U,
  0xbccc1be4bd4d1b08U, 0x3dad70d83c535652U, 0xbd8bda5cbdce4865U, 0xbd9dcac63d9c6347U,
  0x3d03858e3c1d3da8U, 0xbd9ff181bb39aebeU, 0x3d5084b23d46ec60U, 0x3da222f83d8f49a4U,
  0x3e0826a33b1f3f50U, 0xbe1a5c3fbcb4ff78U, 0x3cc684933d1d3d69U, 0x3d42bb8fbca1c10dU,
  0xbd9defc73da2ce19U, 0x3d0537e8bb3c9a83U, 0x3dc63f7e3d859d7fU, 0x3d10a10ebce5adbbU,
  0x3dd8311ebd4c1397U, 0x3d28f76c3c9453b1U, 0x3d387ac23d6b9dd9U, 0x3dcffb6abd365217U,
  0x3cbff177bd8fe4daU, 0xbb53f72d3db3714cU, 0xbe26b9f8bd55db00U, 0xbc26f07ebd4fd037U,
  0xbd3b97cfbd47866aU, 0xbcc07f08bc8c3a18U, 0x3d5f1e64bd3f6e0aU, 0xbcfdeb543e26c7aeU,
  0xbd7e97b13d66fa2cU, 0x3d85de0abdf63958U, 0x3d95dc96bd513a97U, 0x3e0180443bb3cf9aU,
  0xbc6536743d54b881U, 0xbd75b4143c827118U, 0x3e28b578bbd3fa9bU, 0x3d5d4b06bdd926a7U,
  0xbca20bc8bd712ad0U, 0x3d87f4a63dea4fd7U, 0xbe17f9a73ddcb014U, 0xbd623799bde0e06eU,
  0xbd8a69b6bd4223eaU, 0x3d9d72d63c79969cU, 0xbd53cd663c549b20U, 0xbd599df33db07b09U,
  0xbc67399f3d3644adU, 0x3d9c6d2bbdbc4a27U, 0x3c2b983abcbc7716U, 0xbdb43cbf3daffca9U,
  0xbcff698c3d74a7d0U, 0xbd8d0f4dbd9e83f7U, 0x3daa7a843d3348cbU, 0x3c9488bc3d04d962U,
  0xbd211f713e06c48dU, 0xbdbc394f3d890bc8U, 0x3e2fe41cbbb9068dU, 0x3e1b456cbc1642e3U,
  0x3c4c4ae03ce61fb7U, 0x3d27fc573e2969c9U, 0xbe21f0273e0993fbU, 0xbd8fbab8be06262aU,
  0x3d7f4cfbbe1614cbU, 0x3db968323d9d0f6eU, 0xbdd617313d5fa12dU, 0xbe42f58a3ba6fcf3U,
  0xbe0efd9bbca7f475U, 0x3e107be1be2d0639U, 0x3d404721be08bd19U, 0xbc7a82773e0ed12fU,
  0xbd538ba83dcc3168U, 0x3d1dc702bd5bf66fU, 0x3decd55cbd2bd308U, 0x3dbe4e2f3c96dd3eU,
  0x3e1240e13da74533U, 0xbade7342bcd042a4U, 0xbd185f5f3d806419U, 0x3dabf627be2c9efeU,
  0xbd00bb9ebd7fc39eU, 0x3d1965f33e0c6cffU, 0xbdea2e583a358ea2U, 0xbddb2e10bd36e5d4U,
  0xbdabf3c9bdc24c90U, 0x3d4da2f4bdf6bdbaU, 0x3d1ebfbebdac3e87U, 0x3db5e08c3e2b7bb8U,
  0x3d9346a73d90b72eU, 0xbd3fe861bdbd313dU, 0x3d9f45db3c7a64d8U, 0x3d905d83bde390e5U,
  0x3cdcbf16bd14c472U, 0xbd4586eb3ddf0610U, 0xbd69fd7f3e1344a1U, 0x3d5a7a67be275cffU,
  0x3c4a392dbde51ea8U, 0x3d51effabcced5f7U, 0xbe025d2d3d555c94U, 0xbdd48198bd44df22U,
  0xbd29e9eabc22d490U, 0x3dad2762bcf9a02dU, 0xbda6dedcbc9e45fcU, 0xbdcb727a3b5cd9c0U,
  0x3d0f973d3d8340ceU, 0x3cbbda9ebd8a7c77U, 0xbc5048c8bcf07839U, 0x3d8517d73c319ec2U,
  0xbd2040673d4c7c62U, 0xbd7d000abcc7af80U, 0x3c9bcba3bd85b5eeU, 0x3cdbbfdcbdd5e3daU,
  0x3d39fdafbd01f50bU, 0x3d12c6dcbd01732fU, 0x3c1199a1bd32df7aU, 0x3d82aca1bb955982U,
  0xbd0ca9e5bd3ccd09U, 0x3da32cf2bce7af0bU, 0x3a8177d0bcfcb60eU, 0x3d6953f03dbf4d46U,
  0x3c66bf9bbd816236U, 0x3d2324cf3bb6cce9U, 0x3d37d39abd3631fbU, 0x3db315dd3ce6b315U,
  0xbcb59f513db99b06U, 0x3ca06e20bc074018U, 0x3b66ace6bd15b53dU, 0x3d238370be28b2d7U,
  0x3da169153c6b894fU, 0x3d50ce813cbebd56U, 0xbd0bb3c53d86930aU, 0x3c16326ebd4acf01U,
  0xbd3af4d23d4fb2f6U, 0x3c8072fd3cc1e0e3U, 0x3cc96d9f3bcdb0e5U, 0xbc0854ed3d3797ecU,
  0xbdd6f88d3ce86e6fU, 0xbd6a9003bb8e5f1fU, 0x3db1c8cb3e0d1d9cU, 0x3c76065bbcd38f52U,
  0x3db74502bd2db3adU, 0xbca3ae4f3db8916cU, 0xbd59ce423ddabcf0U, 0xbe308dccbd2d61c2U,
  0xbde3e45bbdaf68f5U, 0x3df991773abd025fU, 0xbdc0ff0ebd642467U, 0xbe0945363c9b62c7U,
  0xbd03ac4f3d3608b3U, 0x3b691fe2bd3c034bU, 0x3de2235cbe00b156U, 0x3dc7a8bb3d905a0fU,
  0x3dce5c2d3ddd4208U, 0xbdd69c9f3d1cc5ceU, 0x3dbdaa153ca570d6U, 0x3d912d53be104966U,
  0x3ddcb903bca86288U, 0x3d1983813ddf0d8eU, 0xbe2bb7623e7d2b81U, 0xbdf113d4be46794bU,
  0x3cf7deb6be40d343U, 0x3da87a563d98da6fU, 0xbe22f0083c6633c8U, 0xbe5d42533c1d2e4cU,
  0xbd6d010a3d1e9c4fU, 0x3db8854cbe6cc435U, 0x3cac555ebde7975fU, 0xbd0180023dd9fe7cU,
  0xbd72b22e3df8630bU, 0xbe1796dbbddbf929U, 0xbcbedc0ebbafb093U, 0x3d68953dbb5001dfU,
  0xbcdae6b53cb9b5a2U, 0xbcc6a0b43dda8984U, 0x3d5eaff13d3e9b97U, 0xbd91f6febe20e790U,
  0x3cbb59bd3baf091dU, 0x3d00ff923deafb80U, 0xbe1bbffcbc934fb8U, 0xbe3b0d9ebcdfa2a9U,
  0xbde459babc5c68baU, 0xbcaad4c1bd835586U, 0xbb60b52cbc856894U, 0x3b281978bd059e96U,
  0x3bf2ec563da4cd81U, 0xbd68b8cabde7e867U, 0x3c98e107bd10648cU, 0x3d4d2614baa56f07U,
  0x3db77420be087e4bU, 0xbbc7ada1bd40881cU, 0xbe24eb723db6e473U, 0xbe3cdd9bbe5b2486U,
  0xbcf8953bbe1a6b16U, 0x3d8fb8cabc38df79U, 0xbd973fb7bd041e23U, 0xbdbcbfb13ce59fefU,
  0x3cbd72633e21db14U, 0xbc9fd0f2bdd090d5U, 0x3d24dcbebdc058e0U, 0xbc82df0c3d36bbdfU,
  0x3df89a45bcfac3a4U, 0xbd3a40403d8e8d45U, 0x3801fefe3d9ae743U, 0xbdab2fdebdf89843U,
  0xbc989e60bd849da7U, 0x3e009f4ebd05e66dU, 0xbe500ea83cfb65a0U, 0xbe0323b8bd70a620U,
  0xbdbb5012be049434U, 0xbb11e9c2bdf7e866U, 0xbad946eebdb5255eU, 0xbe12d4a13d3e5c90U,
  0x3d01fe203dc8b4e7U, 0xbddeefc8bde7afa9U, 0x3d715c913c5dfd64U, 0x3c94a117bd2a7847U,
  0xbba8b85c3d0e0169U, 0xbe3b30513ddb57f8U, 0xbdbd566a3db1a965U, 0xbdeafa1dbe4ead6dU,
  0xbc923487be1a9fc8U, 0x3da6f92d3dd45205U, 0xbe6829d33dee6cb2U, 0xbe667ac0bcd3c472U,
  0xbd6b3afbbd9d21daU, 0x3dbd9deebc595c32U, 0xbc7bbade3ca8bf0fU, 0x3cc450443d837c0fU,
  0x3d427f113e049e13U, 0xbe0bcc80bdcfc695U, 0x3e3b05d53bc68e5dU, 0x3dd6e40c3dd3812eU,
  0x3d6fd5f13daea012U, 0xbacd10b8bcb2b2beU, 0xbbca9fbc3dbced22U, 0xbe298444be2943eeU,
  0xbd8b75a0bd407f45U, 0x3d74a5a63dc58695U, 0xbd03283abd8b6fd1U, 0xbe2c51133da7c0bcU,
  0xbd80f0a4bdaf904bU, 0x3d501fabbddcd2c9U, 0x3da40496bd018632U, 0x3d1c58773dfe151cU,
  0x3cd9503b3d06c9ecU, 0xbbdc51efbd2b0005U, 0x3de3c748bcb1a530U, 0xbc739047bdb2edf5U,
  0x3e0619393d874a5cU, 0x3cb94988bd2ccc13U, 0xbd11d987bd948f69U, 0xbd51d674bdc091a4U,
  0x3db0b98abd0572c2U, 0x3cc39e2c3cf6fdd3U, 0xbdb980873dc36f5fU, 0xbd19fce0bccc80d6U,
  0xbd806dfb3d16564cU, 0xbcccc489bda62ac4U, 0x3d10cfce3d7676f0U, 0xbd578be9bdb974baU,
  0xbcd2ebe7bc8bd54cU, 0xbdd3a505bd5561c9U, 0x3e0602bb3cda7b07U, 0x3da6b2bd3d78cce0U,
  0x3dac015a3dc9cabcU, 0x3cf11bcbbd3751a4U, 0xbd78d7823d4c936aU, 0xbc8eca7bbdf7a9e2U,
  0x3bf7aa633d662716U, 0x3d274d67bc4a676aU, 0xbda2bb31bbefac94U, 0xbd11b2aabdf18d94U,
  0xbd7444d8bd024601U, 0x3db016e33ca6bef9U, 0x3c16dea2bd8fc4eeU, 0x3dd151ba3dd5105cU,
  0xbdcd6bbe3d55dae5U, 0xbd3029e3bdb908baU, 0x3e105bda3dbbdc97U, 0x3d8bfe3f3cd19919U,
  0x3c81e797bc38fe05U, 0xbde4e4b13dd4ba5fU, 0xbdbdc3e43dd51cd8U, 0xbd123585be69b58fU,
  0xbb92c5bcbd86b79eU, 0x3de00ca73c582358U, 0xbe48689f3c7658ffU, 0xbe36e22abca4bd7bU,
  0x3cb136a53ad1b57fU, 0x3bfd1f07be5ecab1U, 0x3ca7519bbd168db6U, 0xbd071b023d4d196dU,
  0xbcc0defd3d685e80U, 0xbd7e542fbd0e9a5fU, 0x3d6c72373d5b83a4U, 0x3d91a437bd914014U,
  0xbd454ec0bd1b8e50U, 0xbad85aa93d5b2e3eU, 0x3bb4f2aa3d4bd51eU, 0xbce3daaebdba04bdU,
  0xbbb4e261bd8196deU, 0xbb4d8a813d6dfe9fU, 0xbd88bb4abcec6b2aU, 0xbd5c3adc3cbb6cfbU,
  0xbd6aea3cbd3e5f72U, 0x3c69cad7bcb44b06U, 0x3b894850bd1a8498U, 0x3c0eac313d165cbdU,
  0xbd319a7abd21ab11U, 0xbd015f95bcac484fU, 0xbbb4d9193cd7746bU, 0x3bb70986be03a605U,
  0x3c947be2bd88b2d9U, 0x3cf6a7823dafefefU, 0xbd3362e2bd090efcU, 0xbda2d91dbc9f7fe5U,
  0xbd6bf282bdc88635U, 0x3dba7f7fbd8d3c5cU, 0xbda99629bce160d6U, 0xbd9fdda43c9cbd00U,
  0xbdae6dbf3d98d904U, 0x3d173531be084cedU, 0x3dc10c53bcd42b74U, 0xbc4b694e3d23a00bU,
  0x3de4710a3b85daeaU, 0xbd53fd983d22c9c7U, 0x3d3609b83c39a790U, 0x3cf228f2bde7fcbeU,
  0x3dfa8803bdd2cd1dU, 0x39923e66bbd22eb5U, 0xbd5fb01a3d83e19eU, 0xbd484e423d2d7ea8U,
  0xbd6130103caf0a66U, 0x3e0e97b8bcc3bc1dU, 0xbcdb586dbd02acfdU, 0xbbc45dc33e069f02U,
  0xbcb555a63c5cbd6dU, 0xbc83bccb3ca138feU, 0x3e03cfacbc7b2092U, 0x3d8182363ce2c0b8U,
  0x3d9d2c103db2591dU, 0xbd4e5f7a3da165efU, 0x3cb40b053d8c7e6cU, 0x3d99c33cbda0a1deU,
  0xbc820bcdbd585eb4U, 0x3d47d8a43e0ddde2U, 0xbe2563443e102930U, 0xbe4f9fd6bcb1b040U,
  0x3d45639fbd3e85c1U, 0x3caad6c1ba948b47U, 0x3d5fa1e13ca0b4d9U, 0xbc1cc1a43cc3df4cU,
  0x3d955b4f3dbe27a6U, 0x3cf05bbebe274a71U, 0x3d5bf15dbb8e67eaU, 0x3da0d92fbb2e1bbaU,
  0x3da9d6553dbe083cU, 0xbd81bc80bd316d73U, 0x3d4432a63da43482U, 0x3d9ea22abe0f1687U,
  0xbd13724bbdc60597U, 0x3d9af9adbcb86359U, 0xbdb02dcd3cc9f67eU, 0xbdfd5abb3d934174U,
  0xbcfbc601bdaa740aU, 0x3e1d7599bd772e0dU, 0xbca18d41bda94c51U, 0x3d8138283df794d7U,
  0x3d9c09c83d1f136bU, 0xba28e7d7bd833de7U, 0x3c0effa5bbcd67cdU, 0x3d967aa23dd6c9deU,
  0x3ca2e1863db8e964U, 0x3c32b3d8bcc397fcU, 0xbd70287ebae50a99U, 0x3d7f88f4bd578819U,
  0xbb94f61bbe152835U, 0x3b3d07ed3d701025U, 0xbe27671c3dda3415U, 0xbde858cfbcde6e74U,
  0xbde4c9413c7c56cdU, 0x3dbdb5d0bd113e2bU, 0x3d5235ae3d574ad8U, 0x3d923e4f3d349802U,
  0xbbe6672d3e017372U, 0xbd8fbc17bcf54adfU, 0x3dd410163d96e5daU, 0x3e2c83fbbccc6ba3U,
  0x3de5acdebd18d5d1U, 0xbcf461d83dbff254U, 0xbd06340a3d646a0bU, 0x3d3f1416bdd8f42eU,
  0xbd89953abd50574fU, 0x3d80ac993ba8384aU, 0xbe03eebc3c0b8a4cU, 0xbe200e333da517d0U,
  0xbbb854a7bbffbdc3U, 0x3d4020aebe183b87U, 0x3e6dba5bbd51053fU, 0x3cfd15bb3df914cfU,
  0x3e092e1f3e157dbfU, 0xbc9a571ebd4f7982U, 0x3da18a75bb9ca05fU, 0x3d9a114f3d759fcbU,
  0x3d4ed876bd980b4aU, 0xbd5982643e1b41c6U, 0xbdfc63a63d871abfU, 0xbe2a9bafbdffca90U,
  0x3c84a9eebdc8e97cU, 0x3d3a9d493c47f4a2U, 0xbd909d56bd177db3U, 0xbd577b483e3b8d17U,
  0xbd2467993e00d0d4U, 0xbc06ce1fbe1c2be7U, 0x3dcc2d93bdd25b3eU, 0xbd2a52a43dc72fbbU,
  0x3cda6c923dc2fdafU, 0x3c07422ebd097184U, 0x3cfd36e03ce4fda3U, 0x3e0c03dfbe0a7ce8U,
  0x3de4d30d3d775158U, 0x3a491b7f3d371facU, 0xbde2f9053e0dd550U, 0xbd3d6fd4bd4d1d8cU,
  0xbce5906dbd74fbbeU, 0xbc0d53133c0677deU, 0xbda65bcc3d083e21U, 0xbda64e0abddecf8aU,
  0xbc3aedad3d69ae1aU, 0xbd3d1f6cbd83e6a1U, 0x394cf5653d0b4f4fU, 0x3ae0bf223d683980U,
  0xbd0b62623d859b3eU, 0xbcc45f6a3d8e37a7U, 0xbd2d1c313cc42d15U, 0xbc5d7855be266e1aU,
  0x3daa6a85bd91e991U, 0x3a390701bd366fbaU, 0xbd06c4513dc646edU, 0xbe00e333bd842480U,
  0xbcfafdc5bd2c8bd3U, 0x3d4492f7bdc71876U, 0x3d818a21bb184867U, 0x3bb48a953da1c4daU,
  0xbd1d94ac3dfcb304U, 0xbca937743cdcf7a0U, 0x3dbc05d03d87561fU, 0x3e1668f4bb54eab1U,
  0x3d11791cbe589e23U, 0x3d14e46b3d92409aU, 0xbe01c16c3e17585bU, 0xbcad073fbe1e6441U,
  0xbd09d996bd8105c2U, 0x3d1d9a3abd1c9aa4U, 0x3d3d76cb3c15ca69U, 0xbccda3d73dab2c8cU,
  0xbd55c8493d390d01U, 0x3d350240be1497b6U, 0x3c9fcca13d947ee3U, 0xbb93416d3c8d0195U,
  0x3d1b3ac23d200428U, 0xbd52d6723c0f04cfU, 0x3d2172e93d1cd7cbU, 0xbba7223abe1f804aU,
  0xbd50e3eabdfa0076U, 0xbcf05b083c3b9760U, 0xbdb9b2a6bdb45e31U, 0xbe0a2806bceab044U,
  0xbd8f7e0a3c566ac8U, 0x3d022bd9bdc17070U, 0x3e0e78bebd9c4babU, 0x3d1dbc82bc8bd3e9U,
  0x3dba0fd63d9b927fU, 0xbe087ebc3d4ac5d6U, 0x3d4fabfa3dac29c7U, 0x3d6079bbbe49b7fcU,
  0x3dc1fd43bdf0444bU, 0x3d9892ab3d8e530cU, 0xbdae1cdb3d18d928U, 0xbe03ac17be5c4157U,
  0xbdc22685be36e18fU, 0x3dbbd53bbcc41993U, 0xbd7b7c5bbd850f40U, 0xbda700123dc8f782U,
  0xbcf951243cceb0b9U, 0x3c30cf3abe01fb82U, 0x3d64849dbdbb845cU, 0x3c123d533ca20e85U,
  0x3d23bcc83cdd07caU, 0xbdf436c1bd7e0d8bU, 0xbd9b6b3cbcbe38b0U, 0xbe1e2b34bdde605cU,
  0xbd870bb43d652c3fU, 0x3c2f0df63d87a766U, 0xbdb333e53e06624fU, 0x3dc9d623bd74dde5U,
  0x3d06aff33c41d508U, 0xbce963c7bd36bc9eU, 0x3dd582f0bd7b9143U, 0x3c80670c3d58bbd4U,
  0x3dddc9ec3cd02979U, 0xbd1220543d00d043U, 0xbdaba3aa3df725eaU, 0xbc0d4c54be63a3ddU,
  0x3caf63bebe5647fcU, 0x3d5dc28f3dca2ba8U, 0xbe1c98c53d24df52U, 0xbe5886233cbd86e7U,
  0xbd71fccabde5f3c8U, 0x3dacad6fbdbe8262U, 0x3dcc5524bdede2efU, 0x3df05bff3e158e5aU,
  0x3ba8576a3e205db2U, 0xbd596197be240b40U, 0x3e1c47c8bd95f7aeU, 0x3dd29d0abd9f1828U,
  0x3dadece3bdf01139U, 0xbd97defe3d9a8451U, 0xbe30ef6e3e24766dU, 0xbe89205dbe4292eeU,
  0xbc78f2cfbe29de4cU, 0x3e5d09ecbd875a40U, 0xbe2cedf43cb3f5b0U, 0xbde0faeb3de22b03U,
  0xbdd49fef3d1124ebU, 0xbd73ac82bde3e142U, 0x3e30a32f3a39e8cdU, 0x3e526c143d02bb1fU,
  0x3e30f6a13b842c46U, 0xbde7632a3d4a6705U, 0xbd49d51a3df8ea1fU, 0xbdc42a07be0135d1U,
  0xbd64ebb3bd50e05bU, 0xbd0c8d623be07efcU, 0xbd24a6aab9c9e74dU, 0x3d35f0c2bd83f84aU,
  0xbe17e174bc771e11U, 0x3c70109fbd685fe4U, 0xbc736ad43e1f11f6U, 0x3d724d973e2c519eU,
  0x3d0699ce3d42cadbU, 0xbdc5a37ebcb25ae6U, 0x3d8c6bfb3cdc0d20U, 0xb99b9e73be13495bU,
  0x3e0bb03fbe18fce4U, 0x3cab6cd53d6c3184U, 0xbdee9b663d1a56f7U, 0xbe2f03283d6980b6U,
  0xbe3961d1bad2bf0bU, 0x3ddb6c16be0ee21aU, 0xbd952ae0bdd4d3f5U, 0x3c4af074bc8e73c4U,
  0xbd2a42ea3e136e6dU, 0xbcdbaee7be03ab4cU, 0x3dca30bfbd4e2aadU, 0x3dd5a4893ddd825bU,
  0x3d503c7e3e097fc5U, 0xbd31c1503ccc1a5cU, 0xbd7907603dc76d0eU, 0x3dadfe3bbd686b9eU,
  0xbccf059bbdd20f08U, 0xbc508b303de6702fU, 0xbd920a9bbcb71ad8U, 0xbd725d3dbd9584e5U,
  0xbd332c2ebd66f7e5U, 0xbd439ef9bcb5e5a9U, 0x3c02df813d144ccdU, 0x3c8a879c3deb0454U,
  0x3d89a40f3de18ed7U, 0x3c2024193da2e1e4U, 0xbe87c3233d55ae50U, 0xbd9987f4be1ea6c3U,
  0xbd784fbabdd8ed2dU, 0x3c4351063d00cf4aU, 0xbcb219abbdd5a338U, 0xbe1ed711bcb0333fU,
  0xbd2022b6be136015U, 0x3d5d1e44bdc6aaecU, 0xbb5e77b8bcfc15d1U, 0x3d33c3713d98370aU,
  0xbe46af4d3bdd13b0U, 0x3d074df6bcb2f944U, 0x3e17ec5ebdd985ffU, 0x3e0f0a8cbcbbb99bU,
  0x3d8379d33e04e66dU, 0xbbff916b3dd1163bU, 0x3dcde6df3d9d4cf7U, 0x3d3503d7bd2513b8U,
  0x3b5d8bf53c1cbc48U, 0xbe1bc1343e022728U, 0xbe149ae33e1e0008U, 0xbe0dfe91bd20bacbU,
  0xbdc7b346bdd22ae3U, 0x3d9f26543e17833dU, 0xbd6751e63d654908U, 0xbe10b77dbdb0150cU,
  0x3d351fa9bd4bc258U, 0xbc39b179be263db2U, 0x3d8ffd393da80a38U, 0x3cc43205bd99fb19U,
  0x3cd1d001bcde8dc8U, 0xbbbe263dbdb9273fU, 0xbe65c7353cd69bc2U, 0xbd0ec59c3d979ed1U,
  0xbd162bffbd8cf896U, 0xbc1427debd937b5eU, 0x3d89ad1bbd283aacU, 0x3d381ef6bd85dc38U,
  0x3b593b4b3d38abd6U, 0x3cb5d7c9bc8abe96U, 0xbd02e4a3bd7612f9U, 0x3db87e223b8d3c78U,
  0xbcf5fae4bd1c88cfU, 0xbd5675d1bd7116caU, 0xbc0ca232bbf1db49U, 0xbb733bbdbe0148f6U,
  0x3c935b923d52b72aU, 0xbd11f1903dafe339U, 0x3cfc0af9bc91b668U, 0xbc48d1d73d8019c4U,
  0x3d2bbe7cbdad89c9U, 0xbd08699b3d22eaf6U, 0xbd4515733de977bfU, 0xbbab4b1d3d7a4c91U,
  0xbdc62a253d846fa4U, 0x3cd3081c3db25c34U, 0x3d963cdf3d70c08dU, 0x3db9be7abdbb01e6U,
  0x3d8c42c7bd56dc6dU, 0x3d8961fd3da3b537U, 0xbdf8b0303ccf783eU, 0xbe03299ebcf7da79U,
  0xbcb3ae5abe0eb9d9U, 0x3e061087bd28ed7cU, 0xbe1f3ae6bd42563dU, 0xbd0faab8bcaf16edU,
  0xbdbcac223d1352d9U, 0x3d4d801fbd9566a8U, 0x3de212b4bdf3f9e5U, 0x3dca33bd3dd1b0f0U,
  0x3dd1e3603da5d7e9U, 0xbe38b75abccb89c9U, 0x3ce9df463cafe409U, 0x3cc33552bdadb5d7U,
  0xbe105438bda647c6U, 0xbbc0980c3d6b8089U, 0xbda6d640bdbadc69U, 0x3cee6e3cbd7a0533U,
  0xbe04e776bc9f9cdfU, 0x3cb2559c3df6b3c6U, 0x3d5f5e723b9eba4aU, 0x3c63dab63dc5dcf8U,
  0x3cc770893d0b8e55U, 0xbc101886bd3bb1eeU, 0x3d0dc8a4bc702e01U, 0xbc06a29fbdb1aaedU,
  0x3d55f0b1bd09462fU, 0xbd3983383e20b12cU, 0xbda961963e09a5c7U, 0xbe6556d6bd9a3044U,
  0xbd8ce02ebda4ace0U, 0x3bbf71d2bd39fcd6U, 0xbdbe3585bdd80d01U, 0xbdc7b1733cd67b5fU,
  0xbcd3f7d53d749c29U, 0x3cfb035dbde07387U, 0x3d97896cbdcca066U, 0xbd442e193c95c87aU,
  0x3dd566f53de12597U, 0xbdf8d7fbbcfeac88U, 0xbd8de091bdc3919cU, 0x3d100d8dbe847e1dU,
  0xbcf3bf07bd160eefU, 0xbe17b9b43d58a022U, 0xbd9583043cf0878dU, 0xbd6b3219bdb0a9a2U,
  0xbde0af3fbcd8ebb3U, 0x3ca30147bc8f276eU, 0x3df30d4d3d9284b1U, 0x3d948c833d943af1U,
  0x3d138f5e3d4bc758U, 0xbc5dccb33d8c3d35U, 0x39c8b530baa8b66eU, 0x3d8a392ebd486057U,
  0xbd1cf41b3cc2d3a0U, 0xbd2351ac3dda4a29U, 0xbd9394443d8b3e35U, 0xbd3e0a94bd8bc172U,
  0x3d6ebc21be4fb023U, 0x3d7af3fa3cb86089U, 0xbca5639c3ddb65ffU, 0xbd69fcb13dc6b242U,
  0x3d0cd545bd0059deU, 0x3d1fc586bd80ef60U, 0x3dcaaab5bd1fdf4cU, 0x3d2f8a7d3dc4b852U,
  0x39b7d3383b641233U, 0xbd901332bd306f7aU, 0x3d3e3f0ebd6acd46U, 0xbd09aee0bd0e3abfU,
  0x3d330d303d2cf483U, 0xbe06a96bbbbdcd43U, 0xbcebfc27bdcaffacU, 0xbc6db937bdb93f6fU,
  0xbdedcda63c8729ceU, 0xbc8004513d9c6887U, 0x3d827b313b0f2f01U, 0x3e128be83d90fbabU,
  0x3dd85a153dec871eU, 0xbdc6e75e3cb578d5U, 0xbce04b713de7187aU, 0xbc18cc3b3c9e376cU,
  0xbac08ba93ca4e1e5U, 0xbd3ef9f53d1d07acU, 0xbdc3ccc93d9cd80fU, 0xbb07c91ebdcc1ff3U,
  0xbe2d29cfbdc0f929U, 0x3dbf6d39bcd6d04bU, 0x3b22ac38bdbacff7U, 0xba623464bce08878U,
  0x3c0df4b2bcd41b99U, 0xbcf055f5bd08767eU, 0x3cb1c5d4bcc9745cU, 0x3ce165093d2d270dU,
  0xbbe7d16c3cad30f1U, 0xbdd960e53e120052U, 0x3c9a509fbd33cc9dU, 0xbd8cbbc1bdea06d2U,
  0xbdad72e4bdd536ffU, 0x3dbf62e23afb35d4U, 0x3d24e642bd5bbe8cU, 0xbc90b93bbd05f310U,
  0xbd27b0553dd95935U, 0xbda401b2bd7871c1U, 0xbd3a98fdbbf2c800U, 0x3bcb42b03dbb6a55U,
  0x3d90c60cbd016410U, 0xbd9bdca13d39bd21U, 0xbdbbcf753d944640U, 0xbe4f174cbd1baf36U,
  0xbca5f289be02c3c2U, 0x3dadfc4fbda1def8U, 0x3c7c886ebdc9dad4U, 0xbd3e56ef3b818ad1U,
  0xbca666d13d8c6c37U, 0xbd17eafebe265457U, 0x3d9b71cbbcaced02U, 0x3d96eb59bdb058e7U,
  0x3d98e090bcd5bfb6U, 0xbe3b13e53de67b56U, 0xbd17d1253d962a9dU, 0x3d4472273cf92a64U,
  0xbcf41d9c3bfdfe4cU, 0x3de238c03d637961U, 0xbe8000393d5e6857U, 0xbd78bbfc3cf55b8eU,
  0xbe2fa050bd860371U, 0x3c92e4513cb7b67fU, 0x3d186029be0ecd5bU, 0xbd62f0393d8021fdU,
  0x3d4cd1e73cd93d62U, 0xbd1182b0bdd78955U, 0x3e0de5be3d5f854eU, 0x3c128be93e2b44ccU,
  0x3d18271d3d7c18aeU, 0xbdbd722d3e184314U, 0x3d088facbcc38341U, 0xbccca63fbc1eaab7U,
  0xbd2cd9e03d6f117dU, 0xbc838fe13de090bcU, 0xbc75a72f3d8feb05U, 0xbcb4c1b2bc76d04aU,
  0xbb70ad0dbdb3ad59U, 0x3c830de53d88609fU, 0x3bf9fadc3d279127U, 0xbc3f83a83d33aeefU,
  0xbc7c6a203d3da1ffU, 0xbd152a6e3cb9a707U, 0x3c6034543d97fe70U, 0x3dc75616bdd30a13U,
  0xbb821c72bda977fdU, 0x3d1abb8cbd61026aU, 0x3cbc8be63df1449aU, 0xbd941760be1a1a75U,
  0xbd890c4cbb33389aU, 0x3db8e8b73c98070fU, 0xbdfaabbc3b230b0dU, 0xbd4e69febd4d7a81U,
  0xbdf1816e3c7927b7U, 0x3e1c05febda8dd95U, 0x3e31fc5ebda6db6dU, 0x3d83ffd43e10ca83U,
  0x3d3750c83de8f454U, 0xbd9fb13fbda7cf28U, 0x3d293aedbd4115b2U, 0x3d5ad0ebbc2d824fU,
  0x3d78b43fbd566f2aU, 0xbd8babb7ba68304fU, 0x3c9191a4bcec8e96U, 0xbdfe0b90bdc9ce68U,
  0xbd4ca6b2bdcf9342U, 0x3d25c9ef3d88f078U, 0xbdc346d5bccb3910U, 0xbd52d831bd822aceU,
  0x3d0056863d341f66U, 0xbd4a5e213d7b4263U, 0xbc92505fbc7ef2ecU, 0xbe0bd279bd9d9099U,
  0xbdd31571bdb1c3faU, 0xbd2fa63abc037c5cU, 0xbdbf3ec7bca060a2U, 0xbd122e99bdec7da6U,
  0xbc6cf137bcb7264bU, 0x3db81a3abd62bb82U, 0x3d2c2c3cbd8dbde9U, 0xbd3335133da2711bU,
  0x3d5f62ecbc8e6ae5U, 0xbd83c128be18d03cU, 0x3d0d0a5d3d03d9b4U, 0x3d8dd51bbdb25624U,
  0xbdd37ffabcba481fU, 0xbd5a56473dbf81f4U, 0x3be392573c889a7dU, 0xbc66c22fbdb60684U,
  0x3a487519bd99802fU, 0x3e186d643d3eca48U, 0x3cf463113d89d2a4U, 0xbc17a0f63cd8e39aU,
  0x3d9934a2bcc3513bU, 0x3d8af6ecbcd22371U, 0xbc83f722bd980549U, 0x3b14376c3e1b0372U,
  0xbc8a46413d370a54U, 0x3d0926a7ba98a3eeU, 0x3b3b2cd3bd9ace2bU, 0xbadebd793d840666U,
  0x3d5794f53e14513aU, 0x3ce615c13d2affd8U, 0xbcb5607fbc0b0029U, 0x3c613fddbd00a23eU,
  0xbc11212dbd0fb2f9U, 0x3c534e4ebc84dc74U, 0x3d739f5ebbd8633aU, 0xbdd129da3dd64da1U,
  0x3d29fc93bcc69b8bU, 0x3de68af13d7dde8bU, 0x3ded05353bb8fcbdU, 0x3dd51f5d3dead080U,
  0x3d3d9e3b3ce407cfU, 0xbe02ed9fbd488b49U, 0x3c68afa63c9e5164U, 0x3de0ac253d9d9bf9U,
  0x3d219591bb033d95U, 0xbd386da1bc8519dbU, 0x3d5b2acb3ccc9208U, 0xbd3e5ab33c9d0e9bU,
  0xbde0842abc1474a7U, 0x3d6a8e023dac6862U, 0xbd804e593c8a8f46U, 0x3c9f4fb33dbe09acU,
  0xbc8c4ac53dad680eU, 0x3bb813593d820aa2U, 0x3dc8f95bbca57a28U, 0x3cbdb1953cfa2d31U,
  0x3d55ef66bd21e74aU, 0x3de8a30e3d9be577U, 0xbcb951dc3d85fc59U, 0xbd6bd61a3c99bf91U,
  0x3d686fc7bd9bb797U, 0x3d6ad8a03dbccce1U, 0xbdd2c2e53da81b68U, 0xbd64ecd3bbfb3b84U,
  0xbe141f5c3d25b232U, 0x3d33dbfcbe1619d7U, 0x3d29b007bd457304U, 0x3d20f0903d83ed61U,
  0xbca7e26f3bc5c6e0U, 0xbd278677bd9d2e25U, 0x3c1eb3813d4a7a22U, 0x3d984b2ebdab0872U,
  0xbd0d69b6bc498b07U, 0x3a5b11893d22ee52U, 0xbdff9d2b3d81377fU, 0xbdbbb23abd409eaeU,
  0x3cbd5a78bc9ca902U, 0x3d875f81bd2cb767U, 0x3d73bd913bd87c0fU, 0x3caa2f803dc5ec55U,
  0xbc057d5f3ce4e4b2U, 0x3d10f6adbcd407faU, 0xbda0df693dc770b5U, 0x3bbda7b13cbd5396U,
  0xbcd32f24bdcac50bU, 0xbdabf5c23c4af379U, 0xbcbe49ddbdb4f78eU, 0xbcaaeafa3a772b56U,
  0xbcabc1c9bc422fa2U, 0x3d91a90dbda223bdU, 0xbe061a33bd5e6529U, 0xbd83dffe3d25b486U,
  0x3da943b9bd66be11U, 0xbd55eec03c06d382U, 0x3dd8d2a8bda8e0caU, 0x3bfc7f083da1b73eU,
  0x3cff04083cb5110aU, 0x3d2a17b6bdb263adU, 0xbdf3a16ebd1eb9c8U, 0x3c350b3ebd55b9e3U,
  0x3c425334bbd2346eU, 0xbd6bc6903deab6c7U, 0x3dd9412fbd1b9bb8U, 0x3c44c573bdbda985U,
  0x3ce0dc5abd65d17bU, 0xbda9aa0bbd2cdae0U, 0xbd9b7d63bcf1399eU, 0x3d4068c3bd4ea450U,
  0x3be94c10bd14e30cU, 0xbbfca6cdbd3a5152U, 0xbd20a99f3bb24863U, 0x3d65b5a03da91850U,
  0x3b2bc6033d4df297U, 0x3c83120e3d2a2f3dU, 0x3d25f6113d3bfaa0U, 0x3d7c98ea3d568fc3U,
  0x3d10a2d43d8d8a1eU, 0x3b2c3230bbb0798cU, 0x3d93c725bba899e2U, 0x3c8d74333dade128U,
  0xbd99566cbd51fb8cU, 0xbbfe7e0e3d294b2fU, 0x3c2233d2bda818daU, 0xbccbda113c4b83a5U,
  0xbdd7a2bdbc8e47ceU, 0x3caca5a5bd7b31caU, 0x3dd23eeebe25058eU, 0x3dfc4e483d018221U,
  0x3c825c5a3e32d638U, 0xbe1ca1adbdab01c5U, 0x3be401323c8c887aU, 0x3d90b6f83d6400cfU,
  0xbdccd21e3cde3696U, 0x3d08e4cb3dd1e62eU, 0xbb4f9aa33d7623c8U, 0x3b6e587fba58d491U,
  0xbd48abc73d1ca2dbU, 0x3d08581c3d83f147U, 0xbc92600f3adb8abcU, 0x3cb991b63e04fb4bU,
  0x3da132af3c776ec0U, 0xbd2cbca7bdb6926fU, 0x3d02d57b3ceda38cU, 0x3d794e35bd43ec6cU,
  0x3c8be017bcd1655cU, 0xbbd088c9bd3dcd99U, 0xbcb75f5cbd829a42U, 0xbd019addbdb5547dU,
  0xbd91bceabd9c1e2eU, 0xbd2a10043d993555U, 0x3d1af8e83b82ac28U, 0xbc2497dabce5a302U,
  0x3c40b87dbd438386U, 0x3db783cebd31625eU, 0x3ceb3520bcee3c66U, 0xbdf3520bbcf96f09U,
  0xbaaed853bd037b73U, 0xbc6bbc86bd884caeU, 0xbbce55e9bba51755U, 0xbd267bbdbdecbeecU,
  0xbc7eb917bcea97e9U, 0x3d9277183c87b62cU, 0x3d1f596cbe081fecU, 0xbd7998e3bd1c02a9U,
  0xbd7cf5ee3d784775U, 0xbdb19b4cbd0c0ffbU, 0x3cc14d2cbd8c08aaU, 0x3d5f38ebbdc6eb23U,
  0xbc52b63dbcb08166U, 0xbbd056713c33bc4bU, 0xbc45d574bc9fbaddU, 0x3c1301b8bdf9ba14U,
  0xbbc950113c6874d4U, 0xbcce42223d9ccf75U, 0x3c95bb0a3d352d07U, 0xbda0cded3d38a171U,
  0xbc6398c3bd43002aU, 0x3dafad95bcf17685U, 0x3d4dd224bd95af60U, 0xbd13ee5b3de52a66U,
  0xbd6cdf5c3e044345U, 0xbdd3be83bc34b7dfU, 0x3df0b0e9bd3d3c1fU, 0x3d26e0a93df12f39U,
  0x3b8a89773dffedbdU, 0x3cc4013d3bd0f0cdU, 0x3d4f2b32bd56bbfeU, 0xbd17d07bbd8b3a08U,
  0xbdcf20d5bdd6a2d1U, 0xbd733b8cbcc6f977U, 0x3ca5d6953c0f12b6U, 0xbb19fe213d54259aU,
  0x3d09676b3dc794eeU, 0xbc8d48693df17af3U, 0xbd4e9aadbc0d3d8dU, 0x3d7e73f1bdcd223fU,
  0x3d66ae863a4c0963U, 0x3ceb399d3d75d1a9U, 0x3c869e253d17e704U, 0x3c74172a3b9d3ee1U,
  0xbd5986b83ca3bab3U, 0x3d0a54c43c00f948U, 0xbb8c01bf3ab2f1c9U, 0xbdaa23f43caebc72U,
  0xbd86287ebe0d0a64U, 0x3da45cc0bdd95c2dU, 0x3dafcbcdbde6f673U, 0x3d83dbf2bd41e384U,
  0xbc9c11c5bd65e1efU, 0xbd3caf8fbe309ba1U, 0x3e3a2b12bda4f7e3U, 0x3df6a49e3dd5b5bbU,
  0x3d8438a33e3f7a42U, 0xbe0ced6b3cbc0329U, 0x3da9290dbd3eca9bU, 0x3ce84009bd9625acU,
  0x3d5c62a7bdd01312U, 0xbd834fd83e006331U, 0x3c696aac3d1613feU, 0xbe1d88343d6eded7U,
  0xbd8c5f883cfde691U, 0x3cdc90eebd94da24U, 0xbc6f99363da1165aU, 0xbd0e74bdbd0de1d4U,
  0x3dd74ddd3d39a07cU, 0xbd96c6dfbd811cc7U, 0xbd8080013db9cc29U, 0x3c6d71d4bd16e418U,
  0xb9af25a73c85097eU, 0xbd7df0da3d4cb16bU, 0xbcfb4094bdd1e79aU, 0x3c8bbc7abca12f49U,
  0xbc200292bd5cf137U, 0x3da2e4ef3d871a5eU, 0xbc88e0aebdc2e265U, 0xbd60b3ed3d92dd47U,
  0x3c9242f43d476c57U, 0xbbad04313d1e4bc5U, 0xbcb7fdd5bd3c2885U, 0x3dc759273ce25024U,
  0xbd1a01d7bd1950e1U, 0xbc5c91093d8c9ab8U, 0x3d303d623d9bdea0U, 0x3cc7a5fcbdec61feU,
  0x3bb25c9b3ce44704U, 0x3d050d323d09011fU, 0xbcffcb3b3c2564e6U, 0x3d5704e5bd8e3695U,
  0xbd1ac8d2bd251a59U, 0x3a23d36f3de651e6U, 0xbcb23a42bd123a1dU, 0xbd8965593e15b984U,
  0x3bd76d4abcb26783U, 0xbd4141de3d4a4491U, 0x3d7c20dc3c2b93dbU, 0x3d492b09bcbf8940U,
  0xbd2eab8e3b17fa6bU, 0x39fa921a3c8c8333U, 0x3d19954dbd5cd147U, 0xbd074bc7bbeded99U,
  0xbd7953c8bd120952U, 0x3d1d1a58bd03d6f8U, 0xbd861ffdbca3ca4eU, 0xbb15844d3dfd6234U,
  0x3d8a25343c2aac8aU, 0xbd2e3582bd81d414U, 0xbd5c24b03dad65c7U, 0x3cd87a68bdc47a5cU,
  0xbb26ccdd3db6cc55U, 0xbc8beceb3db7dc6bU, 0xbe378068bd710e1bU, 0xbd8bdedbbd8ed05aU,
  0xbda5f5363c8901baU, 0x3d69f1f43dc8f41cU, 0x3bff1c3ebd3aef4bU, 0x3ba4af273d1826f8U,
  0x3de51cdebd31e35fU, 0xbca339e1bdfc1b8eU, 0x3cf40b0bbcf72c26U, 0xbccfca7a3d851173U,
  0xbdcdeedc3d4a5655U, 0xb99cac78bb29779eU, 0x3e0ba1ff3d7f501bU, 0xbaf43f74bc06e29cU,
  0xbd3fac523db9f2c2U, 0x3d1b7cb2bd6847a1U, 0x3db0b3b4bd458a16U, 0x3dae4e633d54e550U,
  0xbd9569123d35afdbU, 0xbc947e363d6ccb8bU, 0x3dc4b522bc67ab97U, 0x3dc3559cbc179a5dU,
  0x3d51c975bc2ccb71U, 0xbb99a26e3db29878U, 0xbd5afe8e3d882501U, 0x3d0efef4bd366739U,
  0x3d8a59a8bda1d2f6U, 0x3d8868573d8e3c13U, 0xbbd6e6bbbb1707e2U, 0xbd3f17ebbd428db8U,
  0xbdbf4a993d8fbea5U, 0x3db6247ebcbaaacaU, 0xbba9d1d6bc451799U, 0x3d6c042a3df4ae35U,
  0x3dd8c9a7bc6c398bU, 0x3cac8a01bd8d0205U, 0xbc8b08c1bc524eabU, 0x3d3eb235bcfbe8a9U,
  0x3d81974abc1e3d17U, 0xbca0b792bcb7f18fU, 0xbcda001e3d2e567fU, 0x3d76c5743d58e4cbU,
  0x3d79c8a63dd8e61dU, 0xbdbb4d723cf415f5U, 0x3cd914ae3c6d85cdU, 0x3cef2446bd3be208U,
  0xbc7de47cbc33ef06U, 0xbbdfa30f3e02bbfaU, 0x3d8159f4bb815da3U, 0xbdd5d93b3d5c1ba0U,
  0x3cfe6a593d5a0bf6U, 0x3dc96954bc243269U, 0xbc89b143bcbd6e16U, 0x3d2a69803e0efda3U,
  0x3da17a1fbccc2027U, 0x3ced970ebdd2d6f9U, 0xbd58210cbd5ca41dU, 0x3d922cc4bcf9e5d2U,
  0x3d0e8b9bbd8a72fbU, 0x3c17b6513c8078a6U, 0xbce758d13d67f611U, 0x3c586d96bdb9422cU,
  0xbd365f283d753053U, 0xbdae7dc8bd91f66bU, 0xbd245ae9bda823c8U, 0x3d3359aabd9012eeU,
  0x3d12f2fb3c916e09U, 0xbcca89dd3d8bf40aU, 0x3d811d8f3d4b11b0U, 0xbd0ddfc0bd1d0dc0U,
  0x3def5a1c3d1f8785U, 0xbc50201e3d0ecb60U, 0xbd3bdfa1bd233aafU, 0x3d9f5acfbc6b025dU,
  0xbdc2b32a3d833ed4U, 0x3dde5155bd89f7daU, 0xbda5268dbd49e666U, 0xbbe0a8123dc7fb42U,
  0xbd3b71bfbaa4bbc4U, 0xbd1d51053b4a7171U, 0x3c0a26333d217f6eU, 0x3d1b3491be168af8U,
  0x3c8e9bc5bd3aeeb0U, 0xbde136da3d36f8ccU, 0xbd331ecc3e04bd35U, 0x3d3642b2bcf473aaU,
  0xbd8ec2693b75c00cU, 0xbc498c5abae4690cU, 0x3d9182033d30c8c5U, 0xbd5998e1bb993b7bU,
  0x3c07b9fb3d814ff4U, 0xbd26b3ddbba9e0b8U, 0x3cf35eebbcc792fbU, 0x3d21fc1dbd83afacU,
  0xbcb9198fbd76e503U, 0xbaff16683d8f6f7cU, 0xbdc1245a3b9f4276U, 0xbd6328e9bc0cc24eU,
  0xbdb0586cbb7a7387U, 0x3b52e44ebdb03193U, 0x3c39aef83d53b3d6U, 0xba471244bdd7169eU,
  0xbca100c8bd8a94ddU, 0xbc5d53ef3c5a44ebU, 0xb9df67933d3b25d7U, 0xbdd6e71dbd0e35d7U,
  0x3aa4b54e3d0ff93dU, 0x3ce71f00bd205b42U, 0x3cc08a8dbcd22217U, 0xbc9aae30bd5ba130U,
  0xbcc276f0bb92f464U, 0xbd64b14e3d1df641U, 0x3bf2061a3db10493U, 0xbb5c22ff3ca94b43U,
  0xbc53a167bdd730b1U, 0x3da6e26b3d11ddb1U, 0xbdd7fc963a18259dU, 0x3cd4939ebd2ba645U,
  0x3d559dda3bb9586bU, 0x3d17078cbd555f50U, 0xbc7327253d9acfd7U, 0xbd3d945abd59fbc6U,
  0x3d878bcfbcbe8479U, 0x3d7f7b58bd839cf6U, 0xbd76adf8be29fd21U, 0xbc5d97c03d8f6ed7U,
  0xbb81aa7c3b9f91f3U, 0xbd0e84e8bdb636d3U, 0x3de2cedb3c4fea8cU, 0x3de6f6573cc613c1U,
  0x3dd314f83cd7b80aU, 0xbdfc1f323d023528U, 0x3d53c20a3d886380U, 0x3d34538a3cc249c1U,
  0xbd6695903b888eceU, 0xbc1f686b3e00680cU, 0x3d82c7573dc3081fU, 0x3d4b159cbdccd94fU,
  0xbda52acc3d9e1437U, 0x3d64a7753d53fd3fU, 0x3d8063483d2a5650U, 0x3d9581473d4f1d1eU,
  0x3d3ed8493dafd244U, 0x3d56431d3d92c3a8U, 0xbdf32dbc3d1c9398U, 0xbb04a75dbd9245a7U,
  0xbd144617be1898beU, 0x3d338d1abc455737U, 0xbd855b3fbda78ad6U, 0xbd8b7a993d58a84bU,
  0xbdb85ddebd0e406eU, 0x3d1de455bdb0d0d6U, 0x3dc6b741bdd67016U, 0xbd06577c3d63bea2U,
  0x3e0d7d9ebceb2650U, 0xbc8b9103bda23819U, 0xbd80da59bd62dc0cU, 0xbc4390bebd4ec26bU,
  0x3cd23869bdbd661eU, 0x3da58cf7bdc5695aU, 0xbd4134b3bdd2ffbeU, 0xbdeed8a0bc868881U,
  0x3d9cc2553ce9d691U, 0x3d6e709abdef6b06U, 0x3c7460153c95322fU, 0xbc7716263c875d67U,
  0x3d8cd71e3b990804U, 0xbd9041ddbcf52bffU, 0xbd6285b43d64f725U, 0xbccd0770be34b1d1U,
  0xbd9b804bbdfe9704U, 0x3da1759dbc56b700U, 0xbda43ce8bdbfe3c2U, 0x3c726fb8bb8cc540U,
  0xbcf15f233e378151U, 0x3e07e82cbda9d3c3U, 0x3de489413d41ea98U, 0x3d8601163c359f7dU,
  0x3e3ee4103becad42U, 0xbbabc0e53d22f02fU, 0x3d2f92383d34b8daU, 0xbce50db3bd24b253U,
  0x3d2a43bfbdaefc98U, 0x3d4851a73d59fc32U, 0xbbdfaacfbd6e47caU, 0xbd787a54bd3d1024U,
  0xbbe676523d88904cU, 0x3da6b9aabc865d8aU, 0x3d0d9b913bf5b011U, 0xbdd37e703cc378e1U,
  0x3d0d7792bbb78e3fU, 0x3d5679ba3d3c86a5U, 0xbd919fb2bd283138U, 0xbdc90414bd810ec5U,
  0xbcd4126dbd799918U, 0x3dd65502bd499fc4U, 0x3d6f9055be0e3390U, 0xbd6bbd4b3d56bd8dU,
  0xbd0f88e53e0f5a0aU, 0xbe00e00dbd9545c9U, 0x3d9cc9913d8640ebU, 0x3e0bfc68bd7f5919U,
  0x3bc00e063d56ddf8U, 0xbd27105e3dbc95e4U, 0xbd490b753dd4ec4aU, 0xbcd5cb19be150d50U,
  0x3c007be0bd9e9cffU, 0x3dbe14253dc24449U, 0xbc2a664abd8c0d30U, 0xbc14d4c5bd1cf9dfU,
  0xbd2f4e333c7ae709U, 0x3d221169bda45201U, 0x3d86f9913cb9af0aU, 0xbd219bef3d1ec9efU,
  0x3c842f9bbd87d27aU, 0x3ccc217bbd89e031U, 0xbd7e17463c5cedf0U, 0xbd5d91c3bdf11130U,
  0xbd4ef3f7bdca7b5aU, 0xbd58ddb9bbbf454aU, 0x3d31eae1bd665cd2U, 0x3caa3a03bd32fec1U,
  0xbd8bcf523d0b8e9aU, 0xbda11f903cdad127U, 0xbc15aa7d3ca4c82dU, 0xbcf5e7f8bcb55eaaU,
  0xbd44b1c23c3a1253U, 0xbd7571533dca662bU, 0xbdad75f33dd0f43cU, 0x3d263e1dbdfa3080U,
  0xbd35b325bd984436U, 0x3da174db3dc73736U, 0xbcbbf2b03dc935b2U, 0xbca9fde73d8a61f9U,
  0xbd8818f33d6e9a69U, 0x3aa63ad63dbaee5aU, 0xbcb3a9c23df8f0f1U, 0x3c553c33bd2f725bU,
  0x3d98e626bcf01177U, 0x3d884bba3d6d3cddU, 0xbc42069abd1fe256U, 0xbdb1b365bb232989U,
  0x3c3d9b03bc159f85U, 0x3e0ad8e1bdcb8acbU, 0xbc6a9f43bd84a062U, 0xbd3365a73e5f3fcdU,
  0x3cc5801a3e0e473aU, 0x3d178b80bdb420c8U, 0x3d1799eabcec2d14U, 0x3d3fb993bdae3b51U,
  0x3d221724bd3bbc42U, 0xbe09c0cd3e3264f0U, 0xbd35b140bd821a8aU, 0xbd6fe346bcac8fbeU,
  0x3d88954c3dbddbdbU, 0x3db7fba63b8a08a8U, 0x3de738c83e0e3cecU, 0x3df176273c67c180U,
  0x3db62ca73decfc24U, 0xbd46596e3cb6abeeU, 0xbde5a6383d96f3e7U, 0xbd538cb3bdc95badU,
  0x3d1d93efbe070056U, 0x3dba33e83c41f2f3U, 0xbd9e9ff1bda11832U, 0xbdc1c33d3cbe19e8U,
  0x3c50d5373dd34fd5U, 0x3da326cabd9f04c6U, 0x3e0287f1bda75073U, 0x3d4b0f923da05f78U,
  0x3d9814dfbc41cc2bU, 0xbd9d208a3d7b03cfU, 0x3c5fc955bd9b8d01U, 0x3dfdde55bde68367U,
  0x3d6db0453d9a2c7fU, 0x3c67df943d9382d2U, 0xbce3499d3cce56a8U, 0xbdb2dc423b984c4eU,
  0xbcb8da073c9363fcU, 0x3d9632bebd169f68U, 0x3d168dad3d889094U, 0xbd160cf53bca7baaU,
  0x3e0495593c8cfc55U, 0x3c2a8d2ebc6467edU, 0xbcb823233e003d98U, 0xbd7c58b9bd354bc2U,
  0xbd3069d9bd77d429U, 0x3c7bdeb4bc2d6322U, 0x3dc212febdbca945U, 0x3d00c19abd925970U,
  0xbce0638f3d82bff9U, 0x3d94bf1a3d0b87f5U, 0x3d4bdebc3cb5bb38U, 0x3ba38d1cbd02355aU,
  0x3dedd9273dae12f3U, 0xbde34ad83e1ac9f7U, 0xbd364ebe3da04604U, 0x3cc60ad2bd769cd2U,
  0xbdceccf8bdb21d66U, 0x3d0e81cb3d5ef81eU, 0xbd994f7dbcf1b863U, 0x3d20a1e83cc85297U,
  0xbd3b8d15bb455b97U, 0x3dacb29ebd050fbdU, 0xbdca1bda3d897623U, 0xbcf468b9bda68ac0U,
  0xbca1bf24bc4ab64fU, 0x3d71b42cbcc38a38U, 0xbd82ab7bbd61a489U, 0xbdf0e661bd5fc9daU,
  0x3cfc1e92bda0ce35U, 0xbc6ed4edbdc44df9U, 0x3c9889b8bd992f9bU, 0xbba44fb23e04784aU,
  0x3d25b7fe3df9edc7U, 0xbd8a546fbcf324e8U, 0x3dcb809bbdcfdfbbU, 0x3e34ca4abde01defU,
  0x3d6429993cb43c0fU, 0xbde0b1f93ddc1846U, 0xbdd2a09e3dc9bccdU, 0xbdd97fc9bcb64e28U,
  0xbca18049bbf345e0U, 0x3d31219f3de55b80U, 0xbd4242773cec3759U, 0x3d9c8ddbbdaeae12U,
  0x3d411b8cbdab3435U, 0x3b8a46843d7e42cbU, 0xbc0b88fd3d5947cdU, 0xbd96f6493bdf9286U,
  0x3de5aa8e3c6176b7U, 0xbd2e80673ca8ba48U, 0xbde199b53c65a4abU, 0xbd43bb8cbe1052f9U,
  0x3cd9e750bdc0e6edU, 0x3d159fe3be1edb13U, 0xbc37a96bbd2b7908U, 0xbdbbe2d13da16694U,
  0x3b2b4cec3dd508b0U, 0xbd12b97abd9106e7U, 0x3e27c2ac3d3507d6U, 0x3d0384ffbc570209U,
  0x3dc2fa4bbd2fdae4U, 0xbd4e6cf83d8c430aU, 0xbe1d185b3c7d9cd6U, 0xbde4513cbd551a54U,
  0xbdd85ede3cef032dU, 0xbd8844213d0e8d33U, 0xbcd0aaef3daa7729U, 0xbd0325fabcbc4b4dU,
  0x3dccaae8bc284df3U, 0x3b9214983d89f46eU, 0xbd81ea9a3df1e17aU, 0xbcf13803bc3e8df2U,
  0xbd00aa53bddc509fU, 0x3ce41ab7bd1a70f6U, 0xbdab3ab43d34d626U, 0xbe358ab73bd53a5cU,
  0xbe1a91ecbd146de5U, 0x3c6dcac5be1018f1U, 0x3d32e81ebde9a53fU, 0x3dc916873d982499U,
  0x3dbe7d073c0551e7U, 0xbbf1b3c6bb25e31aU, 0x3d5c19463df93c3cU, 0x3c37dd30bd2899a5U,
  0x3d801e1e3d4b8e61U, 0xbd70a2a83debe56aU, 0xbcc45b2d3ca2dadeU, 0xbd4a2fd9bd9e610cU,
  0x3c247a3fbd960fbfU, 0xbd2e659d3d1dc04cU, 0x3ddf8fb0bc661ba4U, 0x3b6dc4053d37200cU,
  0x3dcd0b8fbd078640U, 0xbcca39a83d4ab320U, 0xbd5d905d3dbe8b7aU, 0xbd9ec6c3bc537f1eU,
  0xbd5fb21ebdadada6U, 0x3dc65911bc8f166fU, 0xbd021669bbcb570cU, 0xbdd285f4bcb8d681U,
  0x3bd47cf3bdb169f1U, 0x3d7aebf6be1f96f6U, 0x3de96fcdbd9268beU, 0x3d5fba643dfe28b9U,
  0x3d7bdde33d9706f0U, 0xbd9c9ceb3ada3573U, 0x3cf1fc933ddfc186U, 0x3d97c7e8bdb001a8U,
  0x3d5a88ccbc6e9603U, 0x3ca40a0f3c9da598U, 0xbbb840c7bc540198U, 0x3cc21837bd9801d1U,
  0xbcc6c0523d396c81U, 0x3d490371bd143114U, 0xbd3cd35bba98814aU, 0xbc7a3ebbbdaef80cU,
  0x3dce0d293cb1e16fU, 0xbc1799783d51d6a5U, 0xbdcfd5b83d852dd2U, 0xbe36c59dbda5a3c0U,
  0x3d22be2fbe3f6642U, 0x3d57fe25bd288d03U, 0xbc5d9cdbbe0ec2f5U, 0x3d2c9b8c3d6d4bbdU,
  0x3bfc6adf3dffa9fcU, 0x3c72b084bdea0dcbU, 0xbce9ede23dbbb527U, 0x3d6cd7bc3db99709U,
  0x3d8ac0873d28dedaU, 0xbd84a45a3dbc7c48U, 0xbd94d31ebc9261d5U, 0xbd2d09d1be60be4cU,
  0xbd030d87be1b7356U, 0x3daec0b53d83e181U, 0xbd503ae0bd05f28eU, 0xbdab314e3cde41feU,
  0x3d10bfee3df4c007U, 0x3e044080bde808ffU, 0x3b95e346ba634c4fU, 0xbc2a987a3d171ea7U,
  0x3d682e22bd068d2dU, 0x3d19e941bd5dc49cU, 0xbd888ed83c844e24U, 0xbdad54ed3d01e450U,
  0x3d357f56be01d987U, 0x3d8bf4ffba89607dU, 0x3c44bcf8bd845f05U, 0xbc079bc63d85ee33U,
  0xbc21bb653d732b89U, 0xbda43d20bcb1b1efU, 0x3d23646dbda37c7bU, 0x3dc458943d3f6956U,
  0x3dd079163cd6aa94U, 0xbdff66583d2f48f9U, 0x3d0092703cbda0edU, 0xbc07e720bdb05adeU,
  0x3d12117fbd93fb87U, 0x3ba8948b3dece844U, 0xbd29a4433d94141eU, 0xbe1692a8bd835bd1U,
  0xbd95e920bd914c72U, 0x3d4cd5363ce54313U, 0x3d58b8833d56a08fU, 0xbcab906cbd3a5d39U,
  0x3d71c0f23c9178f5U, 0x3d2f2ef1bde957bbU, 0xbdcd91193d1ee2d5U, 0xbe063614be2f88ebU,
  0xbdda7a64be1244e6U, 0x3db04d5dbcecfcbaU, 0xbd3aaaa9bda1ba55U, 0xbcb8cc75bd71563aU,
  0xbd0639543e05f50cU, 0x3cb25aedbd7ffa53U, 0x3d28bbf63d5e143fU, 0x3cfbe0bebda36218U,
  0x3d14969b3c20181dU, 0xbda8e85c3da4e7f3U, 0xbdc31d24bcd9d21dU, 0xbce4099cbda5965cU,
  0xbd9b86453dab7dfcU, 0x3c0bce313c3322edU, 0x3d964aef3da780f1U, 0x3d1982a63d3a7d05U,
  0x3c11cb533cd8c902U, 0x3c9447213d60e8e9U, 0xbe32c0123c253010U, 0xbdda05a2bddbb24aU,
  0x3c77aa5bbd86eb6dU, 0x3df68fac3d71d8fcU, 0xbe11241ebc44a1c5U, 0xbe09ba6e3d22717dU,
  0xbd07cba53cb6ca32U, 0xbd3fc1e9be19a7deU, 0x3d4b127fbdb0dc9cU, 0x3e0f1dec3e12505aU,
  0x3d88d5993dff3cc0U, 0xbdd752b03d17f8a9U, 0x3dda31973c8fd6e4U, 0x3da96db2bddf2c5fU,
  0xba9412ab3daf20bcU, 0x3c3a6a913dc8ccf8U, 0x3d7578b43d81f03bU, 0x3d9d92c6bd275605U,
  0xbda447783d183280U, 0x3dcd530b3d2cdc74U, 0xbd1fb7ed3dd1aa39U, 0x3cf4c8f8bb180affU,
  0x3c96639dbbb88031U, 0x3d1a2bb9bb08427aU, 0xba8ccf8c3d8af9afU, 0xbddd3913bdac3137U,
  0x3d470bc8be432187U, 0x3e0a6546bcc93223U, 0xbd42ff49bdcbd40aU, 0xbe4105f63c9e9b11U,
  0x3ce902483d82f83eU, 0x3d0f20ddbe1527d6U, 0x3da9d621bd383c77U, 0x3d52c2253c8065ebU,
  0x3c5a12c83e1360e5U, 0xbd493bfabc32ead6U, 0x3d3fd9e83d36dbb2U, 0x3d96522bbe1f2999U,
  0x3cea2745bb025032U, 0xbd086cc93e5b0b97U, 0xbd0654273dc164e4U, 0xbdb7c08abcdbb93eU,
  0xbd092c9cbdfb3cf8U, 0x3e0907b53c022473U, 0xbdf8c572bc39bda9U, 0xbd210799bcfca2cfU,
  0xbcdd85c4bc800f09U, 0x3d10979abd5bb490U, 0xbc464635bd46610aU, 0x3cd1b85a3d8403f0U,
  0x3dce485b3dd56c02U, 0xbdd90a963d2d6afeU, 0x3dbd42703d2c9d28U, 0x3d58f1da3d17fd17U,
  0x3cc61fb3bdbbf4a9U, 0x3a65af543d930c54U, 0xbdf955d63cfc67bdU, 0xbdf1a034bdff743cU,
  0x3d3a8f87bdd6eb6dU, 0x3df22750bd71620eU, 0x3cc2f776bcc3b056U, 0x3bf023eb3e21f367U,
  0x3d3dce1b3d4a22c2U, 0x3bc85845be142c5fU, 0xbd38253bbda9e64bU, 0xbcdf203a3d2e85adU,
  0xbc2a99ec3d8edc15U, 0xbda877d6bba352afU, 0x3c9adf243dcb2bb4U, 0x3d8b7405bd8e7841U,
  0x3d400541bd9fbfefU, 0x3d8e10dabce88d8eU, 0xbdad86fb3c4a9ff4U, 0xbdf88c0abe11d6f0U,
  0x3bd1cc41bdec4265U, 0x3dbf81413c8b1730U, 0xbe0dcf103d690808U, 0xbe00b1523ce31cf9U,
  0xbd6ebcbd3d923c70U, 0x3dc74181bd8d2bfcU, 0x3d2819563c86690bU, 0xbd1cef433d803a92U,
  0xbc1cfe473d26c61cU, 0xbe0697c83c77ffe3U, 0x3db986213bdc9fc1U, 0x3e35d2d9bd779188U,
  0x3d80e6d6bdf509baU, 0x3dc2a7f83d7a4c95U, 0xbda2af8dbc5c18c5U, 0xbd868fb83d871ec1U,
  0xbd4459003ba4b1f2U, 0x3dbe86113d3bb8afU, 0x3d9508363d15408eU, 0xbbbf270e3ce7a09dU,
  0x3c3bcae43d63d7abU, 0x3da0cfe1bd8e3926U, 0x3c8187cebc9ff919U, 0x3d39df633d7b860eU,
  0x3b7742153c09196aU, 0xbd3a9b56bd45b2a3U, 0xbb2d7eb6bd84df4aU, 0x3c7dc613bd182401U,
  0x3ca41ffdbdd702edU, 0x3d84046e3dbeb6bcU, 0xbe156aaa3dd1d2f2U, 0xbe0bcbf3be371045U,
  0xbdac5468bd15a27fU, 0x3dab07f8bd0bcf82U, 0x3e209465bcdd1c53U, 0x3e0a1be03d188fb5U,
  0x3d48bb203e2b0953U, 0x3cbcc48dbcf043e5U, 0x3dbb977f3dd8f669U, 0x3dbe9ed93c502619U,
  0x3d72f5c23c94225bU, 0xbd21bf2a3d6d178fU, 0x3d6bbebe3dec5e03U, 0xbd772f9bbe228822U,
  0x3d5d48a3be61d9c6U, 0x3e01db6f3d8eb7d8U, 0xbe1cd0d53ce2be66U, 0xbe9f5f9e3d039a88U,
  0xbced2516bda1cc17U, 0x3dc7d15abda3f877U, 0x3c8c5f84be071ac4U, 0x3cf175ec3d6ac543U,
  0x3dd9073f3da94237U, 0xbda5d612be1401a1U, 0x3e019a29bcb3a81eU, 0x3ded6a9fba4cca7fU,
  0x3b3a60e73d69fe53U, 0xbd86f1883cfada37U, 0xbd812c203d98a9b5U, 0xbdb2dce3be30f908U,
  0xbd9c20d4bdb7443cU, 0x3c6c0a59bb877fc4U, 0xbd7537423d876631U, 0xbd1cf82ebcac95a1U,
  0x3cd1045d3d88add2U, 0x3e0fa8b3bde26892U, 0xbd2ccdeb3c0d7da9U, 0xbcf974483d92807dU,
  0x3d042bc83da9f2b6U, 0xbd752b4abd2b6460U, 0x3c9429f63cc19d5eU, 0x3db78d533db97cffU,
  0x3c84321a3d8fa6c5U, 0xbdc109ef3dad2345U, 0xbd9ca3d93d8df39aU, 0x3c1461e5be069938U,
  0xbcde4e0abdd72d6dU, 0x3d81135c3ccb7ea5U, 0xbd8b23d23dcd00ddU, 0xbe200d71bbafdaefU,
  0xbde87d7fbd218d56U, 0x3cb716bcbdb73986U, 0x3b800f20bc6b2aecU, 0x3b1ebffe3d2280c8U,
  0xbd19f0d93d4d7f36U, 0x3d2491b9bce4afb7U, 0x3d8d724a3d24b7b7U, 0x3e0c41693d1011f1U,
  0x3dc942833b292b64U, 0xbd7f77563df66a12U, 0xbe016cc73deabd56U, 0xbe2b5fd5be316039U,
  0x3d2b8b77be5c49c5U, 0x3d7ca7a2bd0203a1U, 0xbe211b243c0df804U, 0xbe742dec3d6e4155U,
  0xbd4b276dbccbf1aaU, 0x3d8dba7fbe833732U, 0x3d87619dbcbacc54U, 0x3e0e9fac3df5efa7U,
  0x3d1d09093d8868eeU, 0xbe12b8e2bd1dcbadU, 0x3d74be35bcb41321U, 0x3d1104b9bd9e2baaU,
  0x3d8b7d3bbdd2cb7aU, 0xbd83ac9c3d8bc932U, 0xbe80fbf93daead59U, 0xbe590869bdecc717U,
  0xbd514d16be0e4781U, 0x3e35fb5dbdad3d6aU, 0x3d9bb835bd8448a0U, 0xbcdd38c73e349abfU,
  0x3dc07eaf3d99ed06U, 0x3d90437abda2fc03U, 0x3dd7c9e1bdc066dbU, 0xbc5037313d855c3bU,
  0xbbeae12b3d0d7c84U, 0xbcfdd37c3cd01495U, 0x3d0b5d063bd76ed6U, 0xbd7e3487bdd44577U,
  0xbcee1922bcac7ae9U, 0x3cc5e5f1bd635502U, 0xbdd0f9273da58e40U, 0xbe1b082ebdb027f2U,
  0xbd370a61bd687721U, 0x3d459c2cbc56ed3aU, 0x3c11397f3d80befcU, 0x3c7ce4debd90d2b6U,
  0x3d16fd19bda003ffU, 0x3da9d89cbc8c0746U, 0x3dbb6ad53cda706bU, 0x3d86be2f3d4183eaU,
  0x3d8737ec3df63d54U, 0x3c799b42bd4e4c39U, 0x3e42f37a3cd1a10bU, 0x3d4033adbde7fa2eU,
  0x3d5dcd03bd3ed730U, 0x3d4b3b233da396c1U, 0xbe09d0b43bb88e55U, 0xbd970566bd4d748cU,
  0xbd9d51e4be013265U, 0x3e13f1bdbc9df972U, 0xbd02dfdc3cf39988U, 0xbdb3cbdb3dce98e0U,
  0x3d5fc3fc3c9ff50cU, 0x3c5a26e4bc749b39U, 0x3db456a1bde4389bU, 0x3da54b623d0cbf2eU,
  0x3d37ed223d351c50U, 0xbd0ce0c0bd729aecU, 0x3d5ba60e3c2fcb53U, 0x3dad734dbce92b03U,
  0x3da15e3dbdc0342bU, 0x3d07fd983da831c1U, 0xbe265a213d8d5c60U, 0xbde2cbdabe20b5a0U,
  0x3ce4e842be05d547U, 0x3e15c4bebdbb8765U, 0xbdefd863bdc1555eU, 0xbe04a4bf3ca9f221U,
  0x3db88d923dd8daadU, 0xbce6d7efbd8a63a1U, 0x3d704b61bdb37a40U, 0xbc69a2a8bd130976U,
  0x3d4aa6bdbcee496fU, 0xbdf9d9e13d0760b3U, 0xbdae646b3e13da1bU, 0xbcf189acbe6cba83U,
  0xbc544647bde1ede9U, 0xbac713e63d7b85caU, 0xbdf528c7bcea8cf3U, 0xbe52b45ebd310469U,
  0xbc9b08bebc80f113U, 0x3e09f99dbcdf2851U, 0x3c48306aba8bc125U, 0xbcc4900c3e15fee0U,
  0x3dfd941d3dd568a8U, 0x3cef2cdbbd857377U, 0x3da576e63d18fed6U, 0x3dab30f63c955e64U,
  0x3dc2d21e3de11034U, 0xbc83a2b8bd076b9cU, 0xbe05e1253d8fc389U, 0xbd852cb8be7baddaU,
  0xbc2f143abe43d79dU, 0x3ddb55e13c438eefU, 0xbe3c04f13cc3793bU, 0xbe3e693a3c14b972U,
  0xbd2b36a6bd11f0eaU, 0x3c9d2521be47fe66U, 0xbc9edff43ccf1cccU, 0x3ce34badbbc32dcaU,
  0x3d47ab9a3e216cb6U, 0x3ba41f38bd810bacU, 0x3da622fcbbf630a4U, 0x3c74b4753c281b2cU,
  0x3e0443bf3dbd43dcU, 0xbd288689bc68eb13U, 0xbdafa6583d8ab43eU, 0x3cb21d2bbddc3eefU,
  0x3d0cc807be1172d2U, 0xbd4611b23df12b51U, 0xbde76dc53dcdfb36U, 0xbdebc35b3d116bafU,
  0x3d234034b921db56U, 0x3d100e9dbcb98c40U, 0xbd89f38f3a65c91dU, 0xbc5ddb2f3cd3c338U,
  0xbb462a263d169a5bU, 0xbd8be780bd5d70bbU, 0x3e1e90d2bd1addc5U, 0x3e2866f43c9d94e5U,
  0x3d6b3dad3da61f41U, 0xbd64ec3c3cb2b280U, 0xbd0551293e28db28U, 0xbda12f2bbdee718eU,
  0x3ce63421bd13ed84U, 0xbc88bcf23ddaed2fU, 0xbd9942933c80a174U, 0xbe2144ed3d1621e6U,
  0xbe1a2a27bd0b9da0U, 0x3e168a61be070917U, 0x3df88956bd8de496U, 0x3d252a413db8eb57U,
  0x3e0f928d3e19b0cbU, 0xbd021274bd3e5973U, 0x3d88b7e03dee8beeU, 0x3e6a279a3ce2335bU,
  0x3d1375e2bd34e6baU, 0xbd4066123d93258fU, 0xbe08bdb93d63dc49U, 0xbcd79291be637cc9U,
  0xbced0f6cbe58b611U, 0x3e1636c13d3270d2U, 0xbe1b49f83ce9a599U, 0xbe521c353c619e79U,
  0x3dc9c034bc537ed5U, 0x3c1c5058bdfdb241U, 0x3dcf356ebdf7c84bU, 0x3d66b9343d46e243U,
  0x3d2d17213e015d01U, 0xbd9dfa7fbde6363bU, 0x3ba29505bd42d9b0U, 0x3cd6d7f4bccec0b5U,
  0x3d5fb205bd8e1b68U, 0x3ceebba43d50ef9fU, 0xbdeb63713de2014bU, 0xbd45a3d3be08155fU,
  0xbd66440fbe0ea089U, 0x3d41c2903d920e60U, 0xbd901ff43d9183a7U, 0xbdefeb8fbbb1826cU,
  0x3ce88faa3c28d21aU, 0xbc2132053cb8d2feU, 0x3c4c32fc3c880a40U, 0x3d40d4bc3d89e443U,
  0xbd9f898b3e0ec3adU, 0xbd5f837cbd351c4dU, 0x3c638a0d3d3a57abU, 0x3d70c8ff3c877f2bU,
  0x3ca9ef923d525747U, 0xbdae1a173d1e4998U, 0xbba0916f3c249251U, 0xbdb59c7ebdd9720dU,
  0x3d93dfe8bd72baf4U, 0x3e19013a3d943950U, 0xbe0cb31b3daa2ee0U, 0xbe0b84763d278646U,
  0xbdf60703bd02a34aU, 0x3c8306e1bc61c29bU, 0x3e0572a7bd817e66U, 0x3d29b7e53cd479daU,
  0x3d9297473d6615aaU, 0xbc8134c5bd93d76bU, 0xbd41dc06bd9e083eU, 0xbd2c279b3ce3b525U,
  0x3cb62a6dbdc317b1U, 0xbdaddd333d5bbdfdU, 0xbe5814c93d208d52U, 0xbe66ff3bbe079d70U,
  0xbdb1aafebe4cf46eU, 0x3d5c52f7bd6e3852U, 0xbe0b93c4bd825beeU, 0xbdadad2a3d946e67U,
  0xbcc3b0cdbc08451cU, 0xbcb55b22be197abeU, 0x3b5e03aabe233c67U, 0x3d651936bcaad27aU,
  0x3e0245673de37911U, 0xbe19da05bd2ed144U, 0xbceb5dc13c58f1a1U, 0x3c5bb5fdbe2fa268U,
  0x3d93804cbe15d33bU, 0x3cffdbf73dff01e5U, 0xbe3c4c173dbb68d8U, 0xbe5121ddbdafed5aU,
  0xbd208f54bd999a80U, 0x3d6d80e0bc30bd49U, 0xbc587925bc8478d5U, 0xbcb69aed3d59a548U,
  0x3d7a5a913d35f9e1U, 0x3d35d445bdd2046aU, 0xbb23d24dbd432848U, 0xbc862b1cbc4f955fU,
  0x3d62bf6c3d5935e7U, 0xbdc8ffdc3c0de508U, 0xbca79bb93d131502U, 0x3ac2e3e8be5c87e8U,
  0xbcfdb62cbd93f374U, 0xba1ac86f3d9c03abU, 0xbcef41f1bc63e516U, 0xbb8191d33b031007U,
  0xbd45e1a13d34842dU, 0x3d8a113c3b75bc12U, 0xbc9da02a3d14736bU, 0x3d3634e53d85c681U,
  0xbceee050bc77bb3dU, 0xbd0cf71bbbc170abU, 0x3e0cf095bd272da9U, 0x3dfd955c3d092dc5U,
  0x3e04a6943db5efeeU, 0xbc4e0610bd7022d9U, 0xbcc111643d0f3fffU, 0xbd6aaf52bd3d76a6U,
  0x3d9fe511bd399043U, 0x3d452ba3bd158ad7U, 0xbe38c410bc32eb25U, 0xbd901f383afdfc01U,
  0xbe13556fbc81d26aU, 0xbc9ee1dbbcd4c7e8U, 0x3d83c9b2be255c8eU, 0xbd21fde73da4cd56U,
  0xb99d2b153d395cb6U, 0xbd944991bddac90fU, 0x3db646dbbd55c358U, 0x3d84d1ee3ce9a5f9U,
  0x3e02b9313d8dcf17U, 0xbda86e5a3cf2ccccU, 0xbdc7d3473c626bfaU, 0x3cd2702abe0ab108U,
  0xbccceb5dbe10ff25U, 0x3cd5ab973bb68121U, 0xbce01c44bc4cea51U, 0xbcf18539bd909396U,
  0xbcee01f73c44e60cU, 0x3de0cb07bd16b640U, 0x3e046fa2bbba6e26U, 0x3d1629b63d83546bU,
  0x3e14d1663d6b5a77U, 0xbe0c7bd03d6c6fd2U, 0xbcb441ba3d8e45c9U, 0x3d648653bdb3911bU,
  0x398fe44abe27262aU, 0x3bd9f5993e39b899U, 0xbd1c338a3d58706eU, 0x3c4202fe3c7c72d5U,
  0xbdf1918fbd033ae4U, 0x3e03f207bc94b1d2U, 0x3d4dce2dbd653d83U, 0xbc5d28fa3da9a4b7U,
  0x3de838323d30a17fU, 0x3c66b2e93d955cd2U, 0xbd5624003d5d397fU, 0x3cbc88c0bd798a0eU,
  0x3dbaaac0bc964d26U, 0xbd880d543e22b920U, 0xbe1af4583ccaade6U, 0x3cb6aa2fbdd3b8f6U,
  0xbdc3f8bdbc07447eU, 0x3d9e70783d9db634U, 0x3da9b370bc47c3cdU, 0xbcc003c83de311fbU,
  0x3dad13693e3fcaf8U, 0x3c3c53d7bd9c0c6aU, 0x3d6ad0b53c3b175fU, 0x3de416f93d36106bU,
  0x3c9b3a6c3ccf25beU, 0x3bca6bd73c2981deU, 0xbdd0f1c33dcaf912U, 0xbb5b11e7be48bbffU,
  0xbc40ae69bde5f902U, 0xbc843f82bca8406bU, 0x3b49eb86bde9628dU, 0xbc61987cbd0413d6U,
  0xbc3027133d7226caU, 0x3d19effcbd80d652U, 0x3d2205d4bc98f657U, 0x3d0b07ea3de34b68U,
  0x3dafd3503d1d0640U, 0xbde02c51bb0d587fU, 0xbd6d3cdb3db3f93bU, 0x3d852b9abdd49746U,
  0xbd986ac6bdb52a7fU, 0x3dc0b0b13cca9dcbU, 0xbd2f3bddbcb007c1U, 0x3cb5ee60bdb44637U,
  0xbe0b33243d50cc32U, 0x3d9ffe95bd81b71bU, 0x3dfd6b2b3d014475U, 0xbca232ce3df534faU,
  0x3b3c02753d0f9f14U, 0xbdd3e7f13d9e3fb7U, 0xbc713ede3d0cabf0U, 0x3d06e1aabd47db9fU,
  0x3cb4e9b6be33c11fU, 0xbd8b56083e0cc980U, 0xbe357e7e3db43ad5U, 0xbd4b3ad2bd9d01d3U,
  0xbe2258873cdeb860U, 0x3d63ec3bbd7bd9c3U, 0x3c3bdcafbc4fa115U, 0xbc510cd33d2c2c83U,
  0x3de1aabe3cab65cbU, 0xbdc06d4abd3c8959U, 0x3e0e34173dd429d4U, 0x3e23ec243d494b17U,
  0x3c9bd1cbbbae68afU, 0xbc6f0ae53d992efeU, 0xbd6538253dbfee3bU, 0x3bd91b08bdc1d401U,
  0xbdbeca6dbd2a429eU, 0x3d5a7cf33daa3bc7U, 0x3caeeed8bd2ac598U, 0xbd2845913d36a3fbU,
  0xbd183cbf3d364ee5U, 0x3cfee9c4bda4d71bU, 0x3b69bcf9bd427adfU, 0x3c8e83bb3d975ffdU,
  0x3deac03f3cfcabe1U, 0xbd7867283db12924U, 0xbd10b4703dcc217dU, 0x3d858a13be286b55U,
  0x3d1c73cdbcd65d8dU, 0x3d188f21bd0c0fb2U, 0xbe33c6b63cd37c49U, 0xbe1fbc6dbd056934U,
  0x3d12f4ce3e011ba2U, 0x3cf41d36bcf505f9U, 0x3e198fe4bd50ade0U, 0xbc875df13d92f904U,
  0x3d7d25b7bca99bafU, 0xbdb8aa5fbdd6308eU, 0xbddcaca7bc2149bfU, 0x3d180e20be05e6caU,
  0xbcb01209bb295fdcU, 0x3da1ced93d85dc06U, 0xbc7e756dbba19c58U, 0xbe2c149bbdbcef26U,
  0xbda3a39dbb5f063aU, 0x3ca2c31cbcf43356U, 0x3dc333de3b86443dU, 0x3d9f14903d8852d6U,
  0x3dcc8a793da2d166U, 0x3ccf2b92bd4916acU, 0xbd66c0a03d34597fU, 0xbd8b845cbdc21d3aU,
  0x3d21c7aebdcfc8d6U, 0xbda09b123df01110U, 0xbde01cba3dbafaf1U, 0xbe054c40bdc3f5cfU,
  0xbdaa1f98bd92f8a1U, 0xbbd4cbe1bcb0177aU, 0x3dcf2b39bd4e9c91U, 0x3d0c50203d406146U,
  0xbbb012093d58898bU, 0xbdc35a30bd852b71U, 0xbd0181e43d0fd8e4U, 0xbb98c709bd2219fdU,
  0x3ce8ed07be36559fU, 0xbd6b2edb3d9bf5fbU, 0xbded27efbbce4b8bU, 0xbe06db25be49e701U,
  0xbe5476acbddeaf12U, 0x3dfa7657bdfe31daU, 0xbcbbf737be1dbcd2U, 0x3d041f103dec8ff2U,
  0x3dfd8bae3e1a9d46U, 0xbd4eb527bdf92849U, 0x3e211ccc3d7f87c7U, 0x3d5b2418bccdc23dU,
  0x3d9adc6d3ce700dfU, 0xbd9e05163d76477aU, 0xbd8f34993d941312U, 0x3c5e5821be86f00bU,
  0xbdeeb4aabe58f3a2U, 0x3d7ddc76bcdc6a8eU, 0xbdfcb8aabcc1d76dU, 0xbdb77ceabd3a908fU,
  0xbe1dbad0bd92c6a9U, 0xbcb4fe7abdc83610U, 0x3d9c1213bdc0a70eU, 0x3d9716173d0756d4U,
  0x3dc2502e3e0ab5c7U, 0xbe10e3a7bd7ce11cU, 0x3e08adcb3d6b8dbbU, 0x3d87f731bd9f881cU,
  0x3cdac69fbe52308cU, 0x3de014733d1f25d0U, 0xbe3cef72bd24716eU, 0xbe4fd95fbd0f43a5U,
  0xbe2cb720bcbbfa0eU, 0x3dbdaf173cac3ff2U, 0x3d477995bde43542U, 0xbd76969d3ddd9328U,
  0xbcb93adc3de51ce8U, 0x3d1860d7bd45a083U, 0x3dfb9fed3d1269c8U, 0x3da1190f3d901cd9U,
  0x3d574915bd090c0eU, 0xbd19e9f73de7ae95U, 0xbe4ff8fa3dace8d8U, 0xbd239c88be60be0dU,
  0xbd1fb764bdbcb677U, 0x3d503dbd3daf131bU, 0xbd53d5aa3d45a304U, 0xbd6cdbd1bd1c84ffU,
  0xbda271393dc1f2e7U, 0xbd2e2a96bbdfe863U, 0x3d1a56f13be0915cU, 0x3d85456a3d0fcf27U,
  0x3d63cc9d3d11eb5dU, 0xbd8e07fa3db8914fU, 0xbdc22f173dbce593U, 0xbd5ae8b7bea3b758U,
  0xbda8be1cbe7d47a4U, 0x3d690d303cd1af15U, 0xbdb61cbbbca227b9U, 0xbdbb60e53c551270U,
  0xbdbf9b453dc2f478U, 0x3d80e2a1be0567daU, 0x3db84080bd97a687U, 0x3df762a53de11996U,
  0x3e4141663dae6381U, 0xbd99b557bc1745f2U, 0xbdd739773dda50f6U, 0xbd6b869fbdb4e73fU,
  0xbd0d456cbe0b2c4eU, 0xbb693502bd0b8c49U, 0xbe5276bebd38418dU, 0xbe50f1fabda95c56U,
  0xbdbfee85bd700315U, 0x3da6d070bde9e260U, 0x3db4e20ebd367bffU, 0x3d7f45f83e2e1f3cU,
  0x3e07b1fa3ddd32b1U, 0xbe3472a8bd3e790aU, 0xbd6deff03e18823aU, 0x3d9f62c7be102d1dU,
  0x3c2158bebda5e7b1U, 0xbca70ff83e0eb4daU, 0xbe7467783c86ffcaU, 0xbe6dcff9bd730624U,
  0xbd92382dbdf6005eU, 0x3e21375abd5682a3U, 0x3d8bc6b1bdda1fc4U, 0xbdf055de3d9b8876U,
  0xbd44dc713e04c376U, 0xbdbc694cbdd4c471U, 0xbc184ba0bd6ae00aU, 0x3d5e8330bd10212eU,
  0x3d45de9ebdbf150fU, 0xbd019fe03d0f38f3U, 0xbdc4b06c3d06df12U, 0x3c050321bea41783U,
  0x3cfa7753bd8cd592U, 0x3da31cc2bcff4fdeU, 0xbd467f44bdb6c24aU, 0xbddbf9d33dcef5e7U,
  0xbd874ea0bb9b8e43U, 0x3c3252133c625660U, 0x3de7de42bda23f78U, 0x3dd580393e091c58U,
  0x3d63a5a23dfcb725U, 0xbd22b6bfbce1bd1eU, 0x3dae9ab83d95ce39U, 0x3d2c8559bda1c926U,
  0xbcbac138bdf3cbedU, 0xbcaa31093c0cfd1aU, 0xbe656a4c3d40dfa9U, 0xbda8eb72be089cbeU,
  0xbdb4aba2bc75799fU, 0x3daa85e0bcd2117fU, 0x3d8c0be4bd31f000U, 0xbb861d423d857d19U,
  0xbc86c4fa3d7a22afU, 0xbb41a594bd81e95dU, 0x3debff6abd80117eU, 0x3d3d1d463d9bc3fcU,
  0x3e12691bbdfdc5d5U, 0xbd7cce013ca45c92U, 0xbda916a03cdafba0U, 0xbdd3de1cbdbfdaa2U,
  0xbda964c5be079ae1U, 0x3e0d6a4ebc6d0a0aU, 0xbd26eae0bd2cbaadU, 0xbcec4d5d3af90d79U,
  0x3d2f88d53e364e12U, 0xbc39aab8bd281292U, 0x3daafba1bd74af2dU, 0x3df6e8b5bcf743e0U,
  0x3db99b5ebdbcd325U, 0x3a2de2723c9d9075U, 0xbe17a0583ca00219U, 0xbdfce82bbe7d95a5U,
  0xbe0c8ed8be63d923U, 0x3da476bb3d8301e0U, 0xbc99eb0d3b21f052U, 0xbcfd9f53bd49fe72U,
  0x3be904e13ca9cc52U, 0x3cd059103bcc38f1U, 0x3da2c23f3d44a6c8U, 0x3c02312cbc93febaU,
  0x3de1b6483c29e417U, 0xbdf672c03d480ad8U, 0xbdff760c3df7e8a2U, 0xbd9ebf7ebdc11079U,
  0xbdd88e9bbca07b50U, 0x3c96721f3d8a39f1U, 0xbd8f1a243dcdcbddU, 0xbddc51fcbd9d36b3U,
  0xbc9712ea3dfd0502U, 0x3d97a11a3d0c7422U, 0x3d87614abbe0d280U, 0x3c99ee513c9e0f1eU,
  0x3d95f6953cd07a99U, 0xbbf2db1d3cee6e8bU, 0x3a431c753d9e1b08U, 0x3cf9a003be2d5576U,
  0xbdfa8812be1bbd54U, 0x3dccac37bce7b17fU, 0xbda8c1263c9455edU, 0xbe0fab81bd118be8U,
  0xbca0e823bd94394aU, 0x3d87420ebd41dd73U, 0x3e294c963dc2eb24U, 0x3dfbc3323dc79910U,
  0x3d31055f3d09a1d4U, 0xbc7a88e7bda2f155U, 0x3c3a548e3e0a7acbU, 0x3c8e6ebabd66b5c5U,
  0x3d954e77be1bb503U, 0x3d5fbc0e3c3f44bcU, 0xbe115d38bc92ec1aU, 0xbdd6667c3ca67885U,
  0xbd4fc9cabba59a04U, 0x3dbb5b0fbda544abU, 0x3e381be83c1f425fU, 0x3c1a89e53e1087f5U,
  0x3d0e554c3dd89514U, 0xbd79043fbda0c5f9U, 0xbcca74123e1d0039U, 0x3df7c852bd0b375dU,
  0x3e11dd77bd1e1650U, 0xbd1bb7e33d48d395U, 0xbd1327253d952f5cU, 0xbde26188be12f2f4U,
  0xbdfcaa0bbd289989U, 0x3e283bc13daef5e6U, 0x3e0d5888be29519eU, 0x3cbbf8103db23c92U,
  0xbc0256803e13412bU, 0x3bc7bd17bdbd7391U, 0x3d0c481ebd0bde56U, 0x3dff4b833d02ad79U,
  0x3dfc86ad3dc4b3fbU, 0xbd3c8d0c3dd40307U, 0xbe1a24693dbcf3a4U, 0x3bcf893ebdc634afU,
  0xbd86995cbce8e94aU, 0x3d9a0d613d112657U, 0xbd59cdec3dfc6243U, 0xbd114c703dc9373eU,
  0xbc605ea23d3b5603U, 0x3de9b6c73bdf6b0eU, 0x3d60bf403d674de3U, 0x3d48aa093cf9be9dU,
  0x3df267193d87b84eU, 0xbd3e20c13d45067eU, 0xbc9eb0273d78fe9eU, 0xbbfe287bbd8986b7U,
  0xba9b7bb1bdd7b375U, 0x3cf837ea3c63bd4bU, 0xbdbfba0dbd368c2bU, 0xbe0f04023d01b8c7U,
  0xbe036ba6bc96bbbfU, 0xbd1e4a40bcc8ce67U, 0x3dc0d140bdbd4277U, 0xbbd1090f3dd68b33U,
  0x3e119b4a3de5899bU, 0xbdb8d0363c1c0297U, 0x3d1e45753e3ecb8cU, 0x3d0d8409be1b6595U,
  0x3c3a78ecbd9dcf76U, 0x3d0a51d83d033ce9U, 0xbe7660653c9d974aU, 0xbd6ef693bdad0ed2U,
  0xbe005a95bdfcf16cU, 0x3d35f369bd2b8669U, 0xbd82cf17be149d2cU, 0xbda8ec323ddb00a5U,
  0x3cb4003b3e7bca7bU, 0xbe10c485bdb2c4bbU, 0x3e242cb43d90a5dcU, 0x3e0e36a5be072d97U,
  0x3e1144f13cba73beU, 0xbde8ee4e3e4e2257U, 0xbe002cc43dbf2a70U, 0x3c576241be28a9aeU,
  0x3c4100863dca15d4U, 0x3bdb00223c0e07bdU, 0xbd7319bbbc57a323U, 0xbdae18ab3db42c43U,
  0x3c9ccb47bd0b0a87U, 0xbd8224443db24db8U, 0x3ba7ec263d92932fU, 0x3e1e0105bcb4d124U,
  0xbb761169bac7c489U, 0x3d59bcb73d7f651cU, 0xbd15ec8a3d3076b0U, 0xbd99f8ccbd12ecb4U,
  0xbaa2814a3d8c5aa0U, 0xbdba9df43d823517U, 0x3b2b31e8bb6b7d37U, 0xbb7348a53d7aea97U,
  0x3d876a77bbcdeb2aU, 0x3cd827c93b8007a4U, 0xbd8812d43dc47d55U, 0x3c1f12e13d76e656U,
  0xb91f051e3d5a7e49U, 0x3d65d229bc63763cU, 0x3dfdeed23c6f2b3cU, 0x3deb21ee3d3ea2f5U,
  0x3ca9fd80bb81b31fU, 0xbc292f8e3c938f4cU, 0x3d7d3392bd5d85b4U, 0x3d07e598bd4107fdU,
  0x3dbf0bb13d201f6cU, 0x3bfdfe7cbc13f46cU, 0x3d9c7e0c3d96e778U, 0x3d3d483e3d85a2aaU,
  0x3cf6fd803d586afeU, 0xbcd9e862baa95df5U, 0x3c9ca7e6bc1eb3caU, 0x3dbc245bbc138e55U,
  0xbcb6c65a3d2a1607U, 0xbccb2666bc9aa8c6U, 0xbba75808bdba6b2dU, 0x3da887a93db0511dU,
  0xbc4e96713d223bbcU, 0x3cb1e3d83d9655b1U, 0x3d94c282398d4e49U, 0x3cea329dbd11287eU,
  0xbd976716bd976eb9U, 0x3d707e9bbd16a3afU, 0xbcd284763d23556eU, 0x3d9f22b23c81a21eU,
  0x3dba7d0ebb723e15U, 0x3c1079173d804759U, 0x3aa00dd8bd62d05cU, 0x3d8f38673cc6f750U,
  0x3caa5452bcbec16dU, 0x3bbb4dc53d1912b2U, 0xbb5d06303d4a64f2U, 0x3b41f29d3d41ea23U,
  0xbc022bff3d1b0102U, 0x3dbcdf443c785129U, 0x3d195f65bbbd0fc9U, 0x3d49e7de3aaf2dcfU,
  0xbd224e923d44c570U, 0x3d9d63503d042209U, 0xbcc602a83d1d1f11U, 0xbd2bc389bd9eb53aU,
  0x3dfbac5dbd5267f0U, 0x3c214b953d25f992U, 0xbc2669653d33d5dbU, 0x3ceb63a03d859844U,
  0x3caf5e98bc589625U, 0x3bd397613d8cc532U, 0xbdb53ac7bcc2235bU, 0xbd23ee3a3d0acfd8U,
  0x3daea377bdd69e24U, 0x3c2a099f3d810ca1U, 0xbdc314cebd716c83U, 0xbd40ebad3d43adfbU,
  0xbc040537bdbadaa6U, 0xbcae0a77ba8a4154U, 0x3b89e2cd3ce3b26eU, 0xbd6423dc3ce7bc80U,
  0x3d34656bbc248194U, 0xbd29208dba974535U, 0xbd6446a63c80f2c3U, 0x3dad72b53d1ebbc1U,
  0xbc7168aebdba35e9U, 0x3d481b053d9a6506U, 0xbdc1aa4d3db066fcU, 0xbccfc2a03d97c5f6U,
  0xbd45e9fbbcd41937U, 0xbc0ec776bb894d07U, 0x3dab7dfe3c55b3eeU, 0x3d3939fb3d2a060dU,
  0x3dbdd8e83d1dd61dU, 0xbaab544abd80c3acU, 0x3d139ff6bdaa5c37U, 0xbd46d2123d87164bU,
  0x3b947c2d3da9c99bU, 0xbba880973da9dfa0U, 0x3dbf6c59bdbd401fU, 0x3dca3eb63d306b00U,
  0x3b83221dbd8dcafbU, 0xbd224bd4bc6368f6U, 0x3d87a9123d5ef359U, 0xbc3c9248bb6ca289U,
  0xbbba02d63d5202b4U, 0x3cc4ea7ebc262118U, 0xbe10b92b3d8032d3U, 0xbdb0c967bdb7529fU,
  0xbce35cd6bdbf8938U, 0x3c2de4e23d2df235U, 0x36fe57a03dd30db3U, 0x3d32f368bd70bb64U,
  0x3d42ca50bd26b0f9U, 0x3cde05703c3d14e0U, 0xbdb801ff3cc40881U, 0xbd60558a3c091033U,
  0x3d4cc674bdab8450U, 0x393927893d907fa9U, 0xbd4e81cb3db5722dU, 0x394ecfb0bc166398U,
  0xbd691d5bbc80b048U, 0x3ce05adabc7eda8eU, 0x3bd276a6bd314d55U, 0xbd26e2443d11a265U,
  0x3cecae583c946150U, 0xbd779d59bd5a78dcU, 0x3cb4202cbc8f5de1U, 0x3dff3a303ddfdccbU,
  0x3d49d5f73d0afaa4U, 0x3c51f1fb3d8223fbU, 0xbce682b6bc8f302eU, 0x3d864263bdca3e16U,
  0x3c4f3aac3c41cc67U, 0x3c74ba483b479d18U, 0x3b90faae3db64b70U, 0xbd06993d3dc3c8eeU,
  0xbd732128bcae6d44U, 0x3ca0efc93d85eb0eU, 0xbd40a8be3d6bf52fU, 0x3ce5bb013d020968U,
  0x3d9f07acb8fed502U, 0x3d955aa83de03d2cU, 0xbc8d4ab3bc952d6eU, 0x3ca959aabc50045eU,
  0xbca0b59bbd05fd2aU, 0x3d64a46a3dd52633U, 0x3d3bb332bcbe7a06U, 0xbcdd1d54bb92051fU,
  0x3d88bd71bd516ebaU, 0x3c7c8c4cbc934a49U, 0xbca07eff3d5706e8U, 0xbb6337213e131f07U,
  0xbd70618bbda7f361U, 0x3cd9e7f73d01eb8cU, 0x3d1d39513d24adc7U, 0x3c121cb63ccc910cU,
  0x3dc550d3bde54cc5U, 0xbda422f63d367f23U, 0xbe1720623d2af6b5U, 0xbe01029e3bc15267U,
  0xbdaa2df43c20af78U, 0x3cc8b2333d8967a3U, 0xbc11bd483ce2aa0fU, 0x3d20c7a8bde106d2U,
  0x3ccfd487bce171c3U, 0x3d73278b3da9733cU, 0x3b47c6fb3cf1bc1eU, 0xbd0cd8fa3d833200U,
  0xbd13ddfbbc896509U, 0x3dd8bcf0bb863755U, 0xbc2a0425bd8a6deeU, 0x3ca55151bd8313e5U,
  0xbd5580c73dbfd7a4U, 0x3a84e03bbd245169U, 0xbda95e8db9f83464U, 0xba9bccbfbda363a9U,
  0x3cf3fb2fbe0aa775U, 0x3d96b7b63c03f6b6U, 0x3c0ebb62bd9d2349U, 0xbca2b1dcbd0d54a3U,
  0xbdf07011bb80ea44U, 0xbdc0eba7bcf6f448U, 0x3c20afeebd8a1bdcU, 0x3de637263da71ae7U,
  0xbcc262823db8982cU, 0x3c9afc873dc3507bU, 0x3d8770a43e0eb360U, 0x3bdc420cbcd2bd4bU,
  0xbdbc9fd23ccf313aU, 0xbdb165d13d605ddcU, 0xbc7025093ced7f52U, 0x3d399c26bda83207U,
  0x3c21e18f3d173d47U, 0x3db22558bcc87316U, 0xbd4053e33d212471U, 0xbdd85f88bc8e488fU,
  0x3d36a1faba83f0d3U, 0x3d11992bbd9af5b4U, 0xbe1dd76dbdc1af0aU, 0xbd4f5a1b3db2a91bU,
  0xbd7c9d23bd840401U, 0x3d359bb7bdf1c10aU, 0xbbc84d9fbd99a84dU, 0x3d997facbd3521e5U,
  0x3cfb20643dd2fb0aU, 0x3cb02e39bb96f800U, 0xbcaef17f3d551a9aU, 0x3da244c9be33afc7U,
  0xbdf04beebd2d5a5bU, 0x3d2465d33e00fea1U, 0x3d052ddb3dcb803fU, 0xbb928d823cb17a26U,
  0x3ce81ef9b9be4b2aU, 0x3db4889c3b4f707aU, 0x3c82186d3d145c74U, 0x3da913673d8787eaU,
  0x3d528bb4bd95ed7aU, 0x3db94c133d754a5eU, 0x3d152b2f3cd1e3a3U, 0xbd14c0b93c297d04U,
  0x3cb306c43ce71e2fU, 0xbd4804643cf57e15U, 0x3bc6d9f63c3289d2U, 0xbd76109abc89904bU,
  0x3cebbfae3d806540U, 0xbced367bbd761439U, 0xbd080c713dd23277U, 0xbd81bce8bc06502aU,
  0x3d2dfacebd740e2fU, 0x3ca1fd0d3dcf9b1bU, 0xbc62ca8fbdc776edU, 0xbda18efcbd870eb2U,
  0xbd7312e2bc94eec2U, 0x3d9375dc3bff1d30U, 0xbb6dc9003d844164U, 0x3d8f61fbbc96e20fU,
  0xbd69e060bce1eb65U, 0xbca1c3783cd63573U, 0xbddcc8913d3db1a7U, 0xbd9ccff33cfeb8cdU,
  0xbdce48abbd2ccac1U, 0x3c2c8f183dc1406eU, 0x3d8e37813d530616U, 0xbd6e0a2a3c2b6431U,
  0x3cb1858fbb8bb982U, 0x3d33b48e3bfbd045U, 0xbccab8a83da072a8U, 0x3d011fe43d818ca7U,
  0xbdb5440d3d336152U, 0xbdb0e6e03e00f260U, 0x3c8a16e5bd08b8acU, 0xbc35df5e3c30cfa6U,
  0xbbe9b76d3ca7c466U, 0x3d962779baabf96aU, 0xbe04f8463ca38221U, 0xb8b91fd43d6d7950U,
  0xbcaf29943d2c14fdU, 0x3d066c1e3cba0267U, 0xbd13f7693cfd835eU, 0x3c1ec9f33d41526fU,
  0xbc299b5a3d60ea34U, 0x3c76d523bd2a14afU, 0xbe028be03d0a3bbeU, 0xbdb2f7eebdf30562U,
  0xbcb43ae43c93dddcU, 0x3ddeef97bda7f588U, 0x3df44050bde83ec4U, 0xbcef5d703d1e8d29U,
  0xbccd9a4abcc110e3U, 0xbcab5d4dbddba5a5U, 0x3d01ec9bbdce5ef6U, 0x3dcc56463c82c573U,
  0xbd2f14603dad9375U, 0xbd3796a93dca12e3U, 0x3d314f903cbe4413U, 0x3dfc9bcbbd90c8eeU,
  0xbcc81734bd7f8c46U, 0x3cc46c683d8dc4e2U, 0xbcd555c83e0694dcU, 0xbdf411643d37ffb4U,
  0xbe0b9717bd748547U, 0x3ca794763bdce3aaU, 0x3dc96ff2bd0c2f52U, 0x3c841ef43d51295cU,
  0x3b1d38fc3d717096U, 0x3ccd78a1bb8888b6U, 0x3e11071dbd1832cbU, 0x3e12a445bd29bdeaU,
  0x3dc2a62cbce7d385U, 0xbe132ec53d2d12a7U, 0x3c6db1d83d1a4a73U, 0xbdbb51b1bdba4116U,
  0xbe17aab7bcfedc03U, 0xbb8966c03ca0e284U, 0x3cfb41a33dc8c01bU, 0xbda68c39bd440476U,
  0xbc99da9b3ce2e3deU, 0xbd6718263cb2a13eU, 0xbd8155a13de0f2a0U, 0xbd2175743c6e7228U,
  0x3c6f91103d2ee022U, 0x3ca2c4c8bcd671f9U, 0x3b95b5263cd41ddaU, 0xbddc4f43bdd3f6aeU,
  0xbb8238bbbe136120U, 0xbd626ed33d099a6aU, 0x3d23458a3c866c33U, 0x3c0ab83e3d84609fU,
  0xbda171dfbbb09101U, 0xbcef7cc5bd09750dU, 0x3cef11fe3c92cfa8U, 0x3c73f6923d640876U,
  0xbd44c30bbd73fd2cU, 0xbda82e3d3cade1eeU, 0x3d50b1d7bc43a4aaU, 0x3cddcff1bca272c1U,
  0xbc8601823c596597U, 0x3c4b04a2bd4ee5dbU, 0xbd0ed2fa3daa667fU, 0xbd3f2d3dbd8ca06eU,
  0xbdee3d323d5b075aU, 0xbbe0574f3c6e18f4U, 0x3de4c183b9b2a488U, 0x3ddb29283c3a4fa0U,
  0xb923c3bb3dd8f2b8U, 0x3c91c5b93d89927cU, 0x3db4e067bd9b64a2U, 0x3d8dda24bd838118U,
  0x3c149afcbd8ad7d8U, 0x3cc3a31a3d32c673U, 0xbda2a7473dae13f8U, 0xbc4734f13ce53a31U,
  0xbcd576233dd20c80U, 0xbbceb8b6bc8da8bbU, 0x3dd898143d60116dU, 0xbd8f41b2ba96e700U,
  0x3c95cd32bd538cecU, 0xbd34cb15bd7183a5U, 0x3d67fc39bdcab408U, 0x3d3eee0d3df24705U,
  0x3d9a68923c69f950U, 0xbd29a93a3d8824f1U, 0x3dfcac38bd5e58c6U, 0x3d49a7643c80bfddU,
  0x3d9ed9353b684618U, 0xbd88df91bd841194U, 0xbd038bde3d6c198cU, 0x3d0ba806bd46333aU,
  0x3c245fa13de1a08dU, 0xbc82d6b93de10e38U, 0x3d8d48ac3cb2cdeaU, 0x3de85b783dc20904U,
  0xbd03ec733d9bc7d9U, 0x3d98457c3e21e595U, 0x3b1633b63d89f05bU, 0xbc19c1043d80a198U,
  0xbd7169ccbdb2dfb1U, 0xbc92dac83ddc5bb4U, 0x3dcf0832bcdb4060U, 0x3db3fc293dc4e7eaU,
  0xbd38e165bd0451aeU, 0x3c3d9c1ebd169c78U, 0x3d26fbaebd10f7f7U, 0x3e1bbe693df6b982U,
  0x3d8aba68bb9ae71cU, 0x3d323bc93b8a5925U, 0xbe0b3a39bc52adc5U, 0xbdf0a1ec3c53b812U,
  0xbce013af3d317159U, 0x3dce682b3c7ff623U, 0xbc6a92e9bdcc9ae4U, 0x3d0127fe3cf8728dU,
  0xbcb193c0bd3a4455U, 0x3d8791c13b0e2166U, 0x3dd33c213cca73efU, 0xbdd554ed3e148142U,
  0x3be66c08bdaa2f42U, 0x3dde84cc3ceac071U, 0xbcaff4e73c46a019U, 0xbd18b6ba3d14b191U,
  0x3df3a9783ca2db52U, 0x3d429edfbd88a20dU, 0xbda849efbd5184c9U, 0xbd64e5b93c375ff6U,
  0xbcda409d3c23f20bU, 0x3ce1aa513d2d0767U, 0xbd3351f5bd44e04fU, 0xbce2bb92bd05aa5cU,
  0xbde4a2323d8db3b5U, 0xbc944703bd02523aU, 0x3dca41f8bdb0ad3aU, 0x3dbfcb6bbce3e68fU,
  0x3d7219663c9ab988U, 0xbd994e433d533c7aU, 0xbc803e783ddc0962U, 0x3d8c450c3cc34fd3U,
  0x3dc7ed4bbdfdd8b3U, 0x3c20068a3c78498cU, 0xbe15ea933da2ba5bU, 0xbe1d79d8bbc3a8e9U,
  0xbde5e6babdc24618U, 0x3dbee71ebe0b6083U, 0xbc93a557bdb713d5U, 0x3c9225423e03d5a4U,
  0x3cdbc90f3de63ba8U, 0xbdca0bd9bde60d68U, 0x3db66aadbe15a9e4U, 0x3e23fc433da42df7U,
  0x3e5286a13dbc768eU, 0xbe3e6ae33dbb0ddaU, 0xbcbedb0c3dc6eb5dU, 0xbcc8d05bbe3967acU,
  0xbdb18f13bd9ef414U, 0x3c6ef6bf3d8f643bU, 0x3c867e14bdcede40U, 0xbdc7a7b5bd9229ebU,
  0x3c69d1ccbd8c62f8U, 0xbbdddfbcbe2b37d6U, 0x3d973df9bd994c9dU, 0x3de8c6553d6375b6U,
  0x3db14074bbb66bb9U, 0xbdec3f09bc4943f4U, 0xbbce30623d82284aU, 0x3c129d40bdcd47b4U,
  0xbd094c9dbe1f7979U, 0xbba891ab3dee2465U, 0xbd888728bb3cdd33U, 0xbdbeb3a5bcc0767aU,
  0xbd6ebb9bbd27ca99U, 0x3cf7ca83bd881f23U, 0x3d32abe2bd56b6deU, 0x3c974fe93dd3648cU,
  0x3e07f3363d3acfcfU, 0x3d8ee1b93d00f651U, 0x3d01fc70baf56d83U, 0xbc00bb8fbcfe14d7U,
  0x3d98893ebb23296cU, 0xbd52d0943be731e0U, 0xbd2a03ccbda6b160U, 0xbd8bd090bd5f5f41U,
  0xbdeb56f03c1cbd90U, 0x3d5ffacd3d75b692U, 0x3c3b81e3bdee34bfU, 0x3d7a683a3c78c4a7U,
  0x3d256cba3de29fd4U, 0x3d6d52abbde0dd95U, 0x3dccf8ee3bf6859bU, 0x3d9bcf963ddf5333U,
  0x3d1bff6fbd1ce1baU, 0x3cd8fa6c3d21076fU, 0x3be92c803d0adff6U, 0xbc5ba599bca7f7b5U,
  0xbcc07aa3bd3c892eU, 0x3d9952f53d74ceecU, 0x3d0fe8cebd06c1b1U, 0xbdd66cbebc4bacabU,
  0x3d4755633dee198aU, 0xbd42e3d93d8fd4d4U, 0x3da056093cfed870U, 0x3d69b0123b81b974U,
  0x3dbae511bd4aa5dcU, 0x3cbc4b023c9057a7U, 0xbdf9a4dc3e0d6d9cU, 0xbda55efa3ca1f883U,
  0x3c011da5bc02e247U, 0x3cea55563c65add8U, 0xbdc422bc3ce2550aU, 0xbd285f1f3c97b5c5U,
  0xbdc9797d3dcb1015U, 0xbd36cd64bdf5151fU, 0x3cab1a4b3c892f9aU, 0x3d80e558bd119d0bU,
  0x3dd2c541ba9050efU, 0xbd49dea73df74fa0U, 0xbdad1c6d3e17bab0U, 0xbd8ed0d4bd87cfb8U,
  0xbd57a9a6bd9c1e3dU, 0x3d9c19cd3dd516a0U, 0xbdf1f1b03a3763cdU, 0xbe142d693bb90f48U,
  0xbd9956d33c221908U, 0x3e0b87b8bd6f8280U, 0xbc06e89dbc6a7735U, 0xbb82514b3c5e798eU,
  0x3e0aad6d3dbac458U, 0xbd45a053bdea7b3bU, 0xbc7392703d2f6156U, 0xbd91dce73a851704U,
  0x3d892320be10ac62U, 0xbdaac6873d949ceaU, 0xbe144906bd4251fdU, 0xbd8b97debdd36b86U,
  0x3cca88ecbe51e86bU, 0x3db40621bc9d117fU, 0xbdb5dcc1be1495bdU, 0x3d41fbef3c9a72f2U,
  0x3be0a9963d90003eU, 0xba6cc58ebe0dee47U, 0x3d01bde8bdc3641bU, 0x3e315c623d275b1fU,
  0x3dce1ce53df9cf13U, 0xbb956f593ca684afU, 0xbcbc16be3d370806U, 0xbdd03c3abd85eb60U,
  0xbc0d1b4cbd95c42dU, 0x3d92c3a53c554448U, 0xbdf45e973c5f4181U, 0xbe143669bd1cbc46U,
  0xbdad93f23cf7f6f0U, 0xbb617971bd4f41caU, 0x3da0bdb5bd80d015U, 0x3e1171423e4a95feU,
  0x3d7b6a2f3cc53fc9U, 0xbc7fee32bcf4f8dbU, 0xbc6d4b523cb8932cU, 0x3d1af7a2bdbe4525U,
  0x3c45657cbe1af21cU, 0x3d4cf8073dc22c11U, 0xbc5625dbbd6fd6e0U, 0x3c1c0f15bc4a3745U,
  0x3d4a7fda3d829aa8U, 0x3df05139bbb81252U, 0x3d728832bd3b75bbU, 0x3d0102893e0066e5U,
  0x3d340d8a3d75364cU, 0xbdaba29a3dd4f491U, 0x3df3167fbc50e194U, 0x3db9d9cd3de5c178U,
  0x3b9be561bb894f53U, 0x3dcb953b3a82b435U, 0x3ddf61d5bd95d9d5U, 0x3dc7c36a3b328239U,
  0xbd9181c6bd8de3c6U, 0xbcc7331cbda0c014U, 0x3c631b303ce65869U, 0x3d1848593dee32baU,
  0x3d96b9f23e63edf7U, 0xbd3cc40eba3b74d5U, 0x3e3cd9bd3bdcac1eU, 0x3e1c5bf7bd95814cU,
  0x3dc273afbd9ee9f6U, 0xbd38e4eb3d0ffa9bU, 0xbd4d2749bbf5c108U, 0xbdd4b2093c349e09U,
  0xbd660366bca05f50U, 0x3d94d9343d2cd213U, 0x3ba3aef8be08ffc0U, 0xbd1ed7843d847e06U,
  0x3d1b48ae3bb1ff94U, 0x3cae345bbd90990bU, 0x3e0da3763b2eebf3U, 0x3da2d2af3d7ca19cU,
  0x3d4cf4cc3df1f160U, 0xbdafb464bbde9a73U, 0xbc0dee82bbc2b7fdU, 0xbd3990a7bddff189U,
  0x3d41cb25be345091U, 0x3d92136f3e366d58U, 0xbd20a8c3bd526766U, 0xbd89780f3c895924U,
  0xbdbdd3cd3dd48bbaU, 0x3dac7114bd2a654bU, 0x3dac161d3d2636beU, 0x3e2c8e463de44b71U,
  0x3e1c8aa63e39c60fU, 0xbdaa4f0c3d883a33U, 0xbcfea9c33d65c536U, 0xbd2e2d8ebd592020U,
  0xbca80a6abe896c61U, 0x3c0d9c3d3d56135bU, 0xbdd87e3b3c9ed025U, 0xbe83fc673ca2cd55U,
  0xbda5a9283ded2606U, 0x3e0a8157be70dc5aU, 0x3dc33c2ebe3931d3U, 0x3e71fef73e6aeee5U,
  0x3d25367e3e5010aaU, 0xbe05037abdbc1a4bU, 0x3dafd1ad3d96fb2fU, 0x3da24a0a3c8fa80bU,
  0xbc6ba025bd3fada2U, 0xbdc15ec23e1cf7ffU, 0xbe23855c3e0c4a31U, 0xbd6f60aebe475535U,
  0xbcea228dbe5fcaf2U, 0x3deee6773dc719bfU, 0xbda276413dabd182U, 0xbe27caa63dcda33bU,
  0x3d0fdf7f3d66d813U, 0xbbdd63cebde7fb96U, 0x3d1a10803d5bd6f7U, 0x3cd97ebb3d191930U,
  0x3d4f76483cbec318U, 0xbd4f8f9bbd0e7e3bU, 0xbd6d535b3c2ca438U, 0xbda9a7cebe71a572U,
  0x3c154dbabe2d1c32U, 0x39454bee3de1ae4dU, 0xbdb2b6e8bd13753bU, 0xbda434bfbd981dccU,
  0x3d9553543caa00c4U, 0xbc3b9d45bd178e04U, 0xbda8065cbc206e07U, 0xbd65d2033cf40111U,
  0x3d78dea73d276e03U, 0xbddf2847bc86d3a7U, 0xbda82d2c3d6c0e8bU, 0x3d344dd0bdb2db35U,
  0xbcfc7273be1bd0b4U, 0x3d3ff510bd3b42ebU, 0xbe3dead6bcef16deU, 0xbe0e11f0bd2393f5U,
  0xbe14bcffbcdfba3cU, 0x3d434018bda5e651U, 0x3bf1d1c9bdd4925aU, 0xbd1b25f83c467f2bU,
  0x3d79578b3d658f32U, 0xbe0c6f67bd8bb108U, 0xbc59ef0bbcca546eU, 0xbd948d27bda3db2dU,
  0x3d785f0cbe43f0a4U, 0x3ca8aecf3da1ebf3U, 0xbd40397b3db6b602U, 0xbe1f06d1bd988fe9U,
  0xbd81e4fa3ccc186dU, 0xbca274acbdece15dU, 0xbc4fd7b4be0f6d16U, 0xbd2008223cd08c5fU,
  0x3e1466ff3da647ffU, 0xbd5e1789bd8853cdU, 0x3d51102dbd269e8bU, 0x3d68ff5b3d903783U,
  0xbce9ecaabcdeff42U, 0xbd84d0f9bb3f5514U, 0xbb88cf933d6f7682U, 0xbca30b6cbde3fc07U,
  0xbcecb17bbd3792fbU, 0x3d4ce478bb986d09U, 0x3d19c8b0bd8ea992U, 0xbdea2019bcd92a43U,
  0x3cd01d313d3eacb4U, 0xbc892e9b3d50fc88U, 0x3ca3b60a3da2d549U, 0x3dd94410bdec662aU,
  0x3d37290dbdac54e6U, 0xbc40882d3db8aaa6U, 0xbe529c9e3d8e6930U, 0xbd21f2cb3cc017b5U,
  0xbdd69ef2be4b969dU, 0x3d419904bcaa8197U, 0xbdd3d92cbca6dd91U, 0xbd295ffe3e2ed018U,
  0xbd25d4fbbd390e2dU, 0x3ce0182ebe2e2853U, 0x3e287b16bda34694U, 0x3e217f9e3d7d55a4U,
